node {
  name: "conv2d_1_input"
  op: "Placeholder"
  attr {
    key: "dtype"
    value {
      type: DT_FLOAT
    }
  }
  attr {
    key: "shape"
    value {
      shape {
        dim {
          size: -1
        }
        dim {
          size: 64
        }
        dim {
          size: 64
        }
        dim {
          size: 4
        }
      }
    }
  }
}
node {
  name: "conv2d_1/kernel"
  op: "Const"
  attr {
    key: "dtype"
    value {
      type: DT_FLOAT
    }
  }
  attr {
    key: "value"
    value {
      tensor {
        dtype: DT_FLOAT
        tensor_shape {
          dim {
            size: 4
          }
          dim {
            size: 4
          }
          dim {
            size: 4
          }
          dim {
            size: 64
          }
        }
        tensor_content: "\340\313\376<\360~Z=p]T=\022s\203\274\337-\202\275Y\242/\275\314\0369\275\000\342\244;J\305\215=H\342f=\262J!\275\330\240\257<\200\243\211\274\004n\312<F\233:\275V@ =dUK=P&\300\274A\323\031\275n\336^\275>\370\021=V^\261\274d\314\215\275\330\022q=\244;\223=\322\254\227\275\202\317k\2757\275.\275rb5\275\212\320\215=\024\t\232<h\001|=\020\270\243\273p\354\305\274\241\236,\275Z\217\210=\313\007Y\275$\263\357<H&\205<`\201\315\273\340\204X=\354E\201\274\264\220\246<\204\0031=\000\3400\270\2505#\274\254_p\275\204\361\361<\262KW\275\240\004b=\306\263\034\275\344\373$=8\260\n\274`H\363;\270\334\237<@\361\366\273\226\\==\203(R\275\346\335\200=\020\264\353;\372\347\002\2750\344}\274@\230\307\273\020\n\017=\002\n\201=\356\357\212\274\272\201\001=$\263\266<x\r?<\362\207 =PW\t\275\262?\023=p\254\323;\267\020p\275T\377\270\274]\252\177\275\034!\226<\212\301\330\274 \354\277\274&2\007=\346\241\006\275\277\350t\275\014\341c=\262s\212\275\270\365\207\274\340`^;\030Hb<\266G\220=\020\343\030<P\300\266;\200\323\373\272f\236\224\274\032\314x\275\242>?=\\\250Z\275\242\224\t\275<\254\204=j\030\216\274j\340\214=\270\242\216=(+\204<\210\nW\275x0K<v\014\220\275\322\235>\275@\317\275< \034\032=,\322s=\312\310<\275\235\2111\275P\304\267<\364\347\322<\315\355\226\275\340Q`<\200\323\322<\364\313\205\274\374\210*=`\314\206\275d\"|=\000x\006\272\000\206\261;\250\2163\275\320\256\367\274\031\002\221\275H6^\274\344Qt=\252\346\220=\000\257\257\273t\310\373<88\021\274\0003\275;\2727D\275\272\267\034\275\200\374\362;f(\203=~+d\275(\271?\274\350\327.\274:a\211=\266\241\'=xD\036\274\370\237Z=\240\274\213\273\272\251\222=\314m\301<\350l&\274\206\377U\275>j:\275\334^\271<\242\310\207=\224S\233<\275\0375\2750\224\375;\214%z\274\274X\206=w \225\275\nR\217=\214\353&\275\370\346\204<\000Y\001\274\300\224\\;\226x\326\274\300>\203:d9\330<\026?2\275\230;\350\274E\016\006\275\214\345\217=x\242\227=V\037Y\275\310\375m\274\364\260\034\275\n(Z\275~\332$=p^\231;\371Y{\275>o\221=@o{\275\270Z\005\274\236^\220\274X\016\213=\204%\351<\016\036\232\274z\3144=\030\373\023\274\224\325\210=\372u\370\274\325\251N\275\226\203\222\275@\002g;K\306\217\275\\\345\255\274T`\177= Z|=,\275\233<N!3=\252\222)=\314\037E\275\342\274\206=\000\353\246<x\250\013\274\002\377>=\330\253\274\274:\264I\275\022\362\277\2744\304|=\344S\311\274\245\335\n\275\\r\262<\260R\331<(\021C=\300I]<\330\276X< \305\036\275\034\"\022\275\200\030^\272\230\244*=`\320);\302_\221=\274\351y=\336p\226\274\004\303v=:@j\275$\004v=<\260z=6\266\213\274\032\230X\275\206\242V\275\333bY\275\364\177H\275\260\337z=\\K`=\365\332S\275>\304L=Z\252\031=\334U\032=(\202\344<\200\306^\274\326\300\211\274\324\013I\274\233\204\200\275O\372\020\275\270r\204=\300\006y\273\342\2235=`\253z<\272/\332\274W\332d\275\374\333\302<FP\031\275\354[\r=\302Q\214\275\320v\006=\236\214\222\275\312\035\313\274|\243k=(\352\311\274T\313.=\240\314\330\273\330\317\211< *\035\274\220y]= [j=ra:\275\272\333\207=`\372\034\274Bn>=@\347\222\274\304\361\007=@\221\211\273\221l\n\275T\201`=\220^\372;l\335\220\275~\375\010=\3400\027\274@\211\017\275\000!\226<\334\360k=N\204\301\274\210$\310<\266\037M\275^7\212\275\334x\226\275\026\212c\275.-\021=\304\253T=\340\220\324;H\356\211= B <\0009\376\271x\215\231<\356R\017=&\356t\2750\310\323<\214E\320<\300\230,\274\224\244\036=x{4<\240\211T;\330\021|=\036\200\036=\360\233\013=e\221+\275\314\377\022=\212\n \275\272\230\204=\234\212~=\020T\323;`\332\020\275\350~\203\275K\345/\275;l\020\275(\2648=\300\206-\274\2142`=p\337\004\274\320u\235;8\2372<\002/\224\274\234\3448=ta2\275\200\233i:P\363\200\274$1\214\275\262\2542=B{\t=\212YR\275&\243S\275\000\2472=\314Yj=dLo\275\234\277\212\275,\216R= \377\003;\232D\275\274\370\223q=1\360~\275\234\024\224<ho]<C1\216\275\000 \226\274\224\351,=j\240\013\275\276\253\225\274t\351\207\275\242w\212=\222^(=`\352*;\224EN\275\300\257{=\3506F\275\200\267\203=x\022\304\274\200\244\343\272\244LP\274\310\020\006\274|y\221=P\363b=\272\324\216=laY=\234\026\020=\276\203<\275\210\225\267\274\304\203\357\274\360\205\234\2742nE\275@6\257\273\274W`\274\000(\301<N\345f\275\216\201A=@\205\242\274L\324\022\275\272\2778\275\020\313\271<P\266/\274x\215W\275:\305\207\274\206\244\217\274_\2100\275\000\365;\2748hT\275K\355E\275$BJ\275P\236\030\274\274\370\226=L,\271\274\260K<<\344!\376<\300\201Q=6?\237\274\026\206J=9W\213\275\014\224\313<\300Ef=\236\365R\275\202\370\211=B1\366\274&Vv\275\000\025\272\272\252l3=XI\311<x\342\370<x\341x\274\312\313H\275z>\002\275]\360\221\275\346\303)=\030\337x<\3310\225\275\250\302\263\274$/l=t\202.=\200\272o:X\233b\274\300\006Q\273\261\022\212\275X\2445<g\304r\275Dl\371\274h\014a<\370>u=\360\226\231<\230.#\274h{\223\274\202\216\003=\340\364H\275\340?m=>\3364=\230\036\227<\324\342Z=\240mH\273`\353\016\274\330\340\211\274\234\254\202=h*\212\275\334\035~=\200\277N\275f\350\303\274jH\001\275\2604\262<\257\331F\275\304\273I=\220\010I<\322Y\215=\202\335f\275N,j\275\200!\027:\014\301\236<\256\036\216\275xS\010=\220C2\275\362t\202=`\273\002<d\036\223\275\340\373\223=N\315F=\204\t\210\275\240\n%\2738\203o=&u\212=\3340\250<8\036\004=\204]L\274\326l\201\274\344\311n=\364\241\266<\204\254\026\275\\:\261<.I\005=\300\311\225;\261&\223\275\214\330R=n\241\223=\360\224\322;d\037}\2754L\344\274\256\320\225=Pr\\=\240)\017;\214\316i=@\314:\275d\220F=\006\024\230\275\374a}\275\300\224-=\020\334\023\274\314\367\307<nL\036=x\243\351<^\0275\2750\261\010=8\002W<\010\"\335<\030\333\251<\335\220\204\275\022\013\201\274\000\263\203:\027\312\034\275\214\371\226<\000\033_<\330\275\037=\250Y\302\274:\203Q\275\260e\377\273\240\017D\273}\245\004\275\000\320\256:@I#\274\234t\314\274\200\370\254:\254Y{=\344DY\275\254\350%=l\366\222=\210\336U\275>\275\373\274P\341\262<\322\307\223\275\316\277\227\275\364\320c=P\354)=\304X\333\274d@\217\275\326\222V\275\312T\314\274\2538\202\275\260\210\374;`\234\316<4\272$=\210\210K<\252\362\037=He\314<\230D\244\274Lv\224<\347\025T\275%\007^\275~\307\021\275\310\003\222\275\260\247.<pI\300;\347\235\222\275P\\\r\274\014\242Z\274\026kB\275`\362\002\275\244\n\205\275`\370\214\275\250\027\367\274(\265/\275\244\3271=\022\004q\275,\356X=\260\035,\274\230\326\215=\\9\013=7\257\215\275\332\"\035=t\341\317<\304\3150=\302\212\226=\262\270\204\275\326\275f\275Z\262.=]S\034\275\000\363C;f\245\003\275\237`\021\275p\341\273;\300\t\005<\000`\2467j\021\023\275M\034\214\275\274`i\274\233db\275\014w\236<`\354.<\344\233\n=PW\210\273\254\377Q=\202m*=\004(u=\330\355\000<\330\343\'\274l8r\275\004\317\244\274\270\231\255\274\254\007\217\275&\265\217\2750\220\273;\346\033\244\274\006\3331\275H\224}= dA;\304\274\276<\\`h=^\003\215=P\254\026=\250\025\026\275\336\200\221\274\244X\006\2758;\026\274\010K\345\274\002\215\217\275<\216\314\274(\360|<\354\021\212\275\024\301\310\274\374\004;=H\232s<\234\255\307\274\300@*=\260\213g\275\324/A\275h\222\303\274`dp< \241\301;\260E\217<\035\303\025\275\006\020\206\275\240c\221\273\200V\351:\340\332\327;86d<\014\210\204=\340\344L\275n\205\030\275R\316\'=\036P\207=p\005\002<\000\026\265\272`\271T;\200\0367<\236u\200=h3b\275\300\006\300<\254]Y\274\320XI\275(\346\321<|\317\324<\252\3270\275-\212\225\275\332>\007\275@\270\223=\020u;<\243\326\222\275\262\022\203= \226J;0\224\216;4&\345<\240\326\232;\240vT\273<x\210=\000\356O\273\2346[\275\234\234P\275\370\311\332<\376\322n\275\\\300p=\004\254\240\274\300\266h\274\035\321\205\275\010\272+=-\357r\275\364 r=\240b\010;6.H\275\"\246\260\274\356\223\243\274\004\244P=\270\365\014\275x\226\023<f\'\203\274TH>=\000oG\272\326RM=\356M0\275h\266\204<\346\264\223=\252F\262\274\322\2428= \"\177;\330\315\252<\306\332.=\202\254\206=\264v\024=R?E\275\314\016\204=p\254\211\273\240Bk;\220\"\202=`\214B<\374\"d=L\232\223\275\360\3500<\330aK=\360tA<6\\\217\275\324\032\354\274\302\025x\275\214AA\274(P\210\2752\234F\275|\232g=r\214\003=pO]=\200lo<\254a\214=\366\211G=\320Z\201\273\304\352k=\200\244\027\274\304x\031\275\360\240+<?\211\220\275\340~\337;<c\261\274H`-\274\273\371&\275\370`\010=|\224T=\024\306m=\302\201\"\275\260o%\2748\370[=\344\253.=\214\350\315\274Z\221\314\274\305\376>\275\264G\214=\344Yd=\214G\t=\220(\004\275\344\361\364<XR\214\275\2664L\275\024\312\201<\3603.<P\006H\275\300!L<J\036\371\274\330\016\037<\272\331\200\275\240?T;\273nK\275\035\315\002\275V\252\226\275\r3)\275\372\364 =\302\232\324\274\214\3065\275\342\340L\275\220\204e\275\356@L\275\340\031\252<\264\275Y=\374<_=p\005\223<\224x\237<N\210\030=8Bn=\204\177 =\246\310\217\275\302\245\226=pv\206=\030\033\212=T\021\340<@\357\205\272|\226\317<\004\023\027=\347\217\210\275\\(\177=\032W\037=x\255\020\275\207|\216\2756I\224=\020#\220<(\037\224<\264P\200=\305\244B\275\325\255\202\275D\003|=\036\036g\275vaU\275l\332s=j6\237\274\200\241i<\220\210\331\274\260\021V<\220\255\302<\210\273?\274\320K\350\273f\321\201\275\335\321\206\275\0004\014\271\220YQ=\210\336\217\2758\372\240\274\210\300\225<\000\023\t;:\005K=(Q\336<4\367\002\275`\216\256<f\236\220=\200Z5\275\"\335\031=\366g\220=\356\304&\275\nP\214=\234\230w\275X\026:\275\025\321\204\275\307\006\216\275\034\263\201\275\000\206Y\275\000C\227;@\2335;L\270}=\034T0= \n`<\272\303\206\274\204*-=j\005\336\274\300n\\\273H\2048<\355\t/\275\204w\340\274\\D\220=\332e\223=\214\024\032\275\220]\252<v\374\277\274\330\001`=\310\\\225\275\036\304d\275Nf\026=\314\261q\274{\327~\275\337vx\275\250\346\200<*\223\375\274\300\335\241<`k\035\273\244\005\217\274`\306\031;\022P\205=\0351\007\275\217N\206\275\360=\006<P\215\215\275\271\351\205\275\270\254v=\256{4=Td\310<\352X\261\274\026\223&=@\215\000\273\3005\273:\226\323\031=\264\3100\275y1s\275\360\222\007<\340-\255;8g/<L\201\220<\375\027\023\275X\227a=\256\372\311\274H\030\033\274\024\331\356<:f\301\274\034Y\t=\334??=\216\264E\275\270\236}=\031\216\206\275\376\274\200=\320\215:=8\375\273<.\247\251\274dLn\275p_%=\t/+\275\324\265\204=\010\307P<\204\022{\275\002\250\032=L\356a=\320\017\233<m\351\007\275p\351f=!\242\221\275p\3466\275\010\007k=0\325Q<\350yz<\000V\343\272\017;B\275\000\360\221\274\230\234s=\340\332\212<\000\224\363;\300\300\213;\010O\347\274\254\032\001=\364\244.=\300\373\\\273F\346\345\274\000\213\250\271^\227\202=\221C,\275\000\n\225=\014k\216=\270\373V=\274/Q\275\342G\227=\227\366Q\275\330\240~\275\320\2424=\350oU=\"\010\215\274>\333\200=\020\270r=g\373\213\275\260\"\270\273\3207X=\244Z\303<\372\021\010=\270+\270<\300\205\227\274vY\212=\360Fk=\357\030\030\275\324\272}=>\203\261\274\270\304\204=\024Z\210=$\200`=\033G=\275G(\201\275\270 0<\311Ts\275.\330\014=0S\351<4\300\320<r_\321\274\340\354\237;\216\010/=\240s\\\275\336*\036=\320\323C=\006sZ\275\300_U\275\220\237V=\272\213W\275\276\214/=\200[\307\273\000 \25394\3533=\234/\313\274\3720\024=)\215\206\275@\272\332<^\261?\275\270\300\226=\260\023\036\274\307\277\227\275J\036\202\274`&\206\275\320\254\205=\222~\317\274RNI=\276^\202\274,\354v\275\200\204\311\274\244\261\223=,\300\211=\304\255V=S[=\275X\276\203\275^)\250\274,:t=\032\263C=\310\256\021\275\314?\027=+\243\211\275\340\320C=\032\316F\275:15=\265\013\203\275x\301\223=\260E\266<\\\003i=P\335\035<\242\2338\275T\205U=\260!&=(\264^<\354QZ=t\r\341<\240\205\024\273\370\201+<8\344\220< \320\240;\200\244@\273\025?\214\275\244ak\275@W2<\"\035\205=R\0012\275\300YR<\004\017\330\274\244\023{=\360\376\n<F,\005=\370}V\274\230?\352\274m6Z\275;\246\224\275\263\306\005\275x\204L\275\300\361\271\274\333[?\275pa\221;\234\242\225\274S\352?\275\000?\321<t|\007=\263\375\200\275l\366\357<\304\365\350<p\233\013\275@,d;\346\341\222=\236^\201\275\360\240c=\030R0<\035\303E\275|\220_\275\366\3572= dL=\000\361\014<\227\331L\275\000\324\n\274\206\342\216\275`mv\274\300ic\273X\336\226=l\360\301<\304\026\027\275\242\261>=X\312=\274\022\343\226=\250\265x<`\222\300\273\260\261w\275\374\252\031\275dX\235\274\010S\035\274\010`T\2757U\216\275<\022\222\275|\002r=\310\236\005=D)4\275D\002d=\206\215w\275\344H\301\274@\251\231\273\337l7\275`[]<\230jO\274f\237\207\275\316\303\214\275\332~\031=\330\344\204=\200\270s:\232<==(X\234\274\334\356\271\274\212~\024=\376\304/=@\316\213\272\260C\210<\020\334R=\312\344\225=\030\334\205\2750H\274<t\021\010=\016\331;=D<\010\2759\371l\275\227\310\226\275\243\031\211\275<\262\325<\256J\033=j\3324\275P\036\335<\210\177d<\242\256\204=/\350\217\275\002\017<=\206\2734\275L\021\202\275\035\016L\275l\312\235\274\230QQ=\252\377\\\275u3%\275\000\262\335;\022BX\275\010\241\227\275\3745\376<\270\263\020< \366\202<\235L\215\275\020w\240<N~6\275(-a\274P]\210=\000XP:\222\036I=x\234\276\274\342\273\023\275\246[%=\300\303\030<d\r\251<\306\030!=\234\256n\274\352\320.=@S\332\273\2706W<\330\024s\2750rc<\2307\316<\252o\020=4&*=\200\301\351\273 \241\247<\021\216\"\275\314\206\215=f\0328=d\002N\275\"\2074=@\201^=\265Ok\275\270\263\225<\306\257)\275\010\346 \274\000\311=<\354\357b=\350u-<F%N=6\325Q\275\356\"\224=F\364\216=\010\206Y=rP\342\274\315[\212\275T\337\210=\304yZ=\332\330\377\274\030\363S\275V\214\r=@/\307</\242\224\275\240\264\357\273\276@7=\274G\217=\327\307\'\275`\212);<\2721\275\200h\313\272f/B\275E\341$\275\364Nz=X\221u\274\345\242\003\27564\202\275\324c\323<d\253\211=\234\267c\274@\004.\274:\311S\275.l\210=\360>\276\274\022\264\326\274pG\312;\303\035\210\2750i1<\274\276[=\000\371a:\216\273\002=`/.;\346m\013=\014h\225<`\210\357\274`~R=\362T\226\274\336W\244\274t\332G\274\224\212P\274\366YD=\356^-=PC\366;\004\216\211=\340q\322\273\250\313\312<\226\325Z\275\300\204\362:>\342\224\275\340\345\234\273j\222[\275H\226&<\344\002\352\274xO|=\020\005k<0\355\242;\240\036\334\273\220g\261\273\370\314\024<\270\256\023=\003h\206\275\307\276M\275\030\304A\275\232\261\"=\331N\023\275x\322N\275\3772.\275\256\356f\275\244\341{=\370\317\030\275$\343h=\256\262\207=\256\033M=TX:=\376\244\220\275H\013\223=D7q=\376\2716=y: \275\240\220M;\240\252\001<\334\375$\275\014i!=\224i\216=\334j\204\275\210\364\003\274\234\200s=(\004Q=\310\361\364<X\311\210\275\374\241X=\220\2210=\357\247J\275\367\2143\275\314\247\346<\330~5<\230\311*=l \234<\244\037\026=\260(\231;\366\374\204\275$\226\022=@\234\365<B\340E\275 \261\346;\"\370\216\275`\354\317;\240\327f\274@s\326\272\264\202V=\356\025\r\275\370oW=\254\354\210\274FC\021=0:\311\273\204\256a=\006Zl\275l\026>\275\236\232q\275\351\317\004\275\274\357\201=\270\344\003<\354Nm\2755\311\005\275\244\013r=(=c<\3118%\275\005<$\275\204wd=\314W\263<T\351=\275BI\023=hX\\=\302\310\203=\320\227\355;\320\024\274;n%== P\033<\344\010\031\275\002\353\213\274\332B\335\274\260\256\264\273\336\3413=R\013i\275\314WB\275(&b\274\207\354\'\275\300\377\353\272\350e\020<\233N\223\275$\235|\274\242\314<\275\322\177)=z\235&=\002\334\241\274\320j\331;\020vR=\366:\206=2\247\362\274\360>Y<F\3350=\032\342\200=\240\243\207\274\022\2737=@}h\273\220\203\301\274\370d\001\275`\\T<\200\035|=l \212\275@\373\321\274\324\242K=\264\036`=\334\244x\2754l\362<^\222\271\274`N%\273\310\250\210=\266c\037=\006hC=~:\272\274\210\026\'<z.K=\300\352k;\204\261\240<\274\037\033=\333+\\\275\354\354\350<\022\335_\275\030?\210<`\245\230;\022\367-=\370\340c\275 \244\237;\240\321S=\\:\025=\001I\r\275O\027@\275\370\n\375\274\032\351\210=\024\305|=\320T!<n\352,=\340\357\256;4L\246\274\026\204\013=t.\203\274\010\317\n<\355O\223\275\000\225\357<4O\343<\262e\017=\020\313z=\020\233\266;\200S\365;zrQ\275<\033#\275\300{T\275xr\367<=\271\013\275\\\242\314<\022g\207\275\354\'|=<l\203\2740(\321\273\204\261U=\036\3315=\0008\0358T\232\335<\000rf=*U\230\274\010\331\334<\373\222#\275x\224\027<@\007s= b\377\273\361h\216\275\200ce=xI<\275@4V=\260\017\r<\220v1\275\030\326w\275&\232\354\274\2321\376\274H\031*=\007\2336\275\210%\200=\034z\227=M>\227\275`@\016\274\230\230\"\2747p\214\275\264\301m\274d\216Y\274\330\251\006<H\314\300\274\374m\034=\000\034\261\270pSp\274B\\\224\275\310\332!\275\000\255*\272\240\250X<\336\375\234\2745U\177\275\244\021\217<\266\221\201\274\320\257v=\204\266.\275P\343B=\270\342\024\274`\342\232;`\232W\273\320\010\203\275|\037\037\275P\243\275\273\006\357O\275\322\305 =\324\200\227=\214\357^\275\030^\301\274\010\326\320\274\005p\227\275G|\223\275\024W\341<P\221n=k@\214\275\200G\317<\000\220\244;\220\301]=d\372T=\004`\202\275\317I%\275\300\026\377\2724sU=\332\270\211\275\260T\264\273\344\256i=\034a\216=\231\243\023\275\301\261\213\275\3721\207\275\004\302\216\275\361\\\030\275\177r\205\275\010\036\264\274,\256\271<\245l\203\2752\366\230\274\274\372\340\274dN\227=\034{\216<\374 n\275R\235\211=\274u\333<h\030\025<X\213\'<\336\2451\275\3144n\275j\013\215=\364}z=^\265\023=\000\372\001\273\254V`\275&\273\205=\020\350n=\316P\206\275h\332\224=\317\010\177\275\307\016\226\275\010C\030<\336\273\302\274n\362\374\274\\\261{\275\336b7=\344V\225=\000\310\356\270\356?\312\274\014\373\227<\254\323h=\203Rz\275\300\177C;\302`~\275T\325\225\275t\377\005=\347,%\275x\227:\274L\212P=\263\326\216\275\214\243+=u\242 \275\220\005\211=\210\314\304<@\326\365\274\326\351\001=\340\260\365\273\252\0063=\326\347\210=(\252\247<\336\305>=\264W\223\275\026\216&=&b\363\274\370(/\275\264\225\220=\000\344m\275\3223\r\275p9\014\274\000\036\t=\230-\273<t8\232<\024_\221=\314({\274\376.\210=\240\032?\273J\255\355\274K\316\000\275\200=u\274\340\334x\274\022\231\030=\246\2148\275\357\t\213\275\004C\200\274\300\031\227\272\350\2536<\000\367z\275\244\245\004=\000\ta<Jq\222\275\240*\264<8\033\203\275@&\327;P\373L<\202\265\217\275\272LI\275N\207\030\275\303x\005\275 \032q\275\320z`=\344\203z=2=\203=\200\016\363:)\322\203\275L\241\215\275\216\262\025\275\275\370\220\275\300Df\273\240J\201;\264z\354\274@\240\340\272\360\366\311<\230\033<=\322\312E=\034D\207=\270w\177=\362\372\204\274\336E\202=\200\010\201=\376(w\275\n5\032=\240\245\347\273\214\226\\\275\250@\356\274f}@=\006\362\334\274\252\233^\275\260\"\202\273C\375\215\275Z\0321=\246t\227=P\211%\274\240\215\246<\204\357\212=\252\273\246\274\202\253\003=\342\217==~\326\006=\26005\275\204C9=|\001C\274\"\243h\275\260\035\207<\254\013d\275\360P\362;|\2644=\020\376\311;@\010\364\273hBn=>\307\327\274Z.5\2754\225\227<Vy\343\274\352;\223\274\020\345:\274B\254\227\274N\257\220\274\204o\032=\336\362.=*\363\224=f\322Y\27502_=\370\331J\275X\374\000\274\240A\335<l\334\370\274h\310*\275\010\362\020<b\323\016=\344Q\\=\3504d\275\304\224\'=\360\370\027<\206n\212\275\200\010\377:duL\275\250\241E\275`\301g= \334\217\275T\251\377<L\352\365<\350(,\275p\367<<`\300z\274\000(o9\"\213\210\275\361\246\210\275\320N\035<\260\271\217;\004d\200=`\270y\273j\347$\275W@\223\275;P\033\275\014\320m\274\254\333\344<\266OJ\275\3551\205\275@\344\007=\314\376Z\274\330\267\251<\\np\275P;\264\273\250>W=\251j\210\275\013)\n\275\350\025\257<D\210\362<N\352\213=\224\302J=\000\364~9\274Q\210=`\334\234;\177\224_\275\320\362\246<\237\244\200\275\221\322.\275\314y\222<nLN\275:_1\275\310\254\311<\206\275J\275\273\254r\275jD\204=<u\365<\200\231\023=\310\226\'<\320\367B=x\240\227=\234\'k=\344\364\024\275\356\301\221\275\004\301\206<\354\325\344\274\000=f;\022\206\364\274(u\277\274\324\013\016=\'PA\275\200F2;\000R\206\273\254\256\216=\210\372r=`^\262\273\000\3407\274|\367\034=\030\010\230=@\202\362\273\034\010Y=d\030\004= \314\272\273\217N!\275\300\276\007<@b\243:\000\307\3759\276\3211=\312Y\177\275a\263\003\275 )\277\273\376\365-\275\254j\217\275Q\021/\275`\212.\274\356J\036\275p\246g\274@\227#\275\356qO=4\326m\275p\305R=\310\214)=\306\231H=\264\307#=\230\256U=\220\200v=9\364\222\275\260\300U<P\000\277\274 \320\301\274\314\234\317<\014,y\275\313\010\200\275\266\2104\275\220\307\373<\314\356\356<\004\305[=(\317\"=`!\252\273\272\264\351\274\236\022\202=\216\215\206=\244_\317<7\222D\275>(\205\274t\324+\275 \241\226\273\032#\200\275\272\206\204\274p\265Q=\213\355\023\275\340@\227<\232X\301\274\346\205<=\314\373\344\274P}\222=\304\"0=\320\342\376;\000T\032\274`A\227;H.c=@\243\315;\254+d\274\220\266\326\273\006\226\031\275v\036O=\300\n\004\273:_\001=`\376#\274\004\036p=\370c;<\200w\306\273\240\366\205\273~N\224=\273s/\275\356\374\020=\250\323\253\274\200\311#:P\267-\274\3026\224=\275\345\220\275@D\306\274\330]]=\260N\222\274\204v\213=\250[;\274\024\344a\275p\245\263;*\023W\275\204\305\201\275\240\340[<\360\277)\274t\020B=~\224e\275\330\217\362<`\203\361;`B,\275\344\227!=\354)q\275\246\314\205\275&\272\253\274.B\223=\2006U=(im=\346\235\010=\0009w\274\000\335\2059\353@y\275\232\345\227\275p\034\207=\240<O\275\330\255\030\274`O\202\2748`@<H\223]= \010c=\300\250\300\274&\213\203\275L\234_\274d\203k\275\224\006L\275$q\010\275L\372\324<t\224<\275\364\300\354<\360\272\177<\020;\373<\304=h=\270]\010=r\246\207=\3624\205=\230\335\224=\375-\"\275\220\365\337;\224\177\217\275\331\262`\275zR\033=p?\222;,9\354<\234\373?=\014W\222=\324\017d\274P6+\275\n\177/=\232\341S\275<\235\370<\260$\242\273\270 >\274\262$\201\274\250\034\027\274\010\\Q\275\000>\215:\300\365(;2Z\224=\224\2349\275\252\020\021=\006q\376\274\242\361;\275\210\375\332<\326\300)\275\266\016\226=\200\304);*\301\320\274\325[\021\275\210hx=\340\203P=~o\021=I \004\275P\304\241<H\tl<\250\304:\275P\245|<\014\032]\275\010\233\205=\254\251|=\276\275q\275\024w_=\000m\204\271^\217\014\275F\035C\275\302\2144\275\270\013\364<\020\210\223</J)\275\014\263\206=\"V\212=\240{==\210\204?=.\232\013=\3406=\274\020\243r=\250\371\361<\361(\215\275\263:\212\275\310c\251<\214q\216=\254\200\253<v?q\275c\244\223\275L\375D\275\330\037v\275@\021\315\273D\345V\274\322\020\243\274\264Nc=Z)0=\007\257?\275\205\370\225\275t-\\=\014\201\314<L\3331=\360\222\370<\000L@;\360\377\200=\020\276\001\275\262\345\027=]3\032\275`\251\262\273>\317\204=\300/\377:\314\207\375<\000\232\216;@\320;\274\250\304\246<\372\0164\2750\356J\275\261\3151\275\3506\261\274\312\2627\275p\336]=\177^\211\275\330/\235\274\200\305\246:\227\315\t\275H\364\250\274\250\237\231\274\240\301\312<\317rr\275\230Va=\n\277\267\274|;v=\356W2\275\220\330\250\273\020\371\345<\260\216\317<\014\006{\274=\225%\275\252:\201\275DL\010=\342B\203\275\246;\363\274\330Jr=\204\335\214<p8\"\274D\262K\274(\230e<2\365B\275\244\3524=\370c?<\000X\333\272`6\330\274x\301I\274<O\206=\266\360\324\2742o\227=\227\316\005\275v\340\205=@I?;B%>=\202w\225\275X\345U=\360\372\014=\246\3136=\316\333\252\274\302\013\221\274xm\353\274H,\345<\030x\323<L\037\n\275\002\331\036=\370\350\020< \364M\273\25086\274\370t\034=\356\002\312\274\300\233\226:\300\243X=L\270\202=\210-$\274x\335\261\274@9\200<\210\037E\275\214\240\364<\344%\370\274\000tw=O\376\016\275\200%(=8B\034<\240\376\246\273\220\204\201\274\010\031\203=@pL\275\"\r\206=\224\311\037\275~\300\211=\000j\n:\304#\226=\206\361\226\274\014b\027\275\222\335I\275\352\364\362\274\374%\257<\346\177R\275^\034\036\275\250\211^=\200\234D\272\260\267=\275\240\256i\273@h\351;\340(f=Nk/=\300\364e\274\364\254H\275\205\256!\275\nY)=\010\010d=\200]B:\300\023\264\274\000E8<R{\020\275\000\334d:@Mt=\234\334S=x\021\375<m\375\013\275\204\357(=\200\373\256\274\330\366\003=,A\327<\234m[=\340\023\001=(\244;<\022\375\214\275#\332~\275\030\231v\275\270\203\001\274\242\200\304\274\214\276\225\275\016\000)=\314\242\370\274\236\231\026\275\000`\2667\000\3506\270\034RE=\032\2547=\n#\227=@\247)=V\225\037=V\231\215=\2540E\275\"\335\216\275\350\227\037\274\204\315}\275\376\3769\275\240\334z;$b\313<r\306\307\274R\371\211=\010\021u=\014?X\275f;:=\216\205\202\275\220\2005\274,\261w=5\312\020\275\032\256\264\274\3638\211\275\372y\002=L\236\360\274\034\360\223<PV\347;Q\024A\275\020\303\263<\324Yh=t\221\377\274\014\205\214=\300%\020;<\371\323<\330^}=\324#~\275\t\020?\275\356\244\020=\330\220)=\004\272\025=\"1J=(\214\266\274\323S\010\275\000\241\2729\252\260\355\274d\252\264\274\207\021b\275\272\331\205\274\020\352\303<\210l\367<\330\250\241\274E\343/\275\222\307\203\275\342\n\353\274\222\215 =\321X3\275X\352\226=\340Fo\275X\356j<\272\006\206=\214kr=*NG\275\002\254\035=`e\262<8\220\220\275u\274\220\275M_\002\275\270\274\221<\270`d=\302R\026=\000\215)<\032\357\031\275\262<\212\275x\333\364<\036\036\010=\300Y\004\273\372W\201= l,\273NW*\275\030\216h=\344\233\263\274^M\001=|A\373<\370\321\200\274x\260+\274~2N\275\244\r\230<\240\317\343;\344\010\370<\302k\262\274\266wM=\366\2123\275\270\nw=D\242\212=\310\254\244<\310\267\010\275\\\351\312\274\020;\241;\200\242\002\274\240\024m\273\340(\240<\020B\312;\200\021E\275\240M\005\273\000F\337;}l\005\275\000\2144\274\274?\321<\340\3325\275\274\243\321<\025\205k\275\200\253\277\272\276+\220=\004\007\017=f\226\204=\214}^=\0009P=`\315\026=\354Y\226\275R\363\327\274\276T =@\257y<\352\355\204\274\3644\227=\254@Z\275\000\347\267;\205{\202\275\200?\006=\320\312\356\273\324hj=\310\0014=\226}z\2756\014J\275h\367\\=lG<=\354,\207<\361\366\007\275\220\322\330;Z\000\256\274\\_p\275\210Q!\274\236t\002=\200\262\362;\360\010\201=\314\210\203<Dw\200\275*m\t\2750\252\274;X\345\"=\320h\257<\242\013\025=<\255\247<\\\303\351\274\260)\212<\200\356g\272\250\006\032=\010\227l\274\206_K\275\344\222w\275\272*\007\275\240\000;<\010;\020\275\272\027\201\275d\364*=$\365F=\310\225@\274\330O\232\274\200\356\\\272R5\220=G\332\002\275\200\360D<[\327\204\275\320@\324\273\3575\023\275P\316\224=\274r\220\275@wC\273d\211t=M\217\202\275\350\020s\274@\367a;\354\372\026=\\\2047= \234T=\240\202g\275\314\255j\274\330\336\004<pHt=@(\370:(\322#=|\360\006=\240\366o=\244\351R=\030\241S<\302\353)=,^\374<\364l\313<\016\210\246\274:\323\376\274Tg\312\274@\267X;\374\256\212<dz\206\275\234\232\317<\333k0\275\360\365\351;\340Wf\275.\333\214=\223$\226\275H\265:=4\352^=3#\016\275Z\355o\275\200\330\362:\200\306\025; \020\335;\014{z=\232\247\013=z\362\332\274\372\307_\275\352\302\335\274\340\004\372;\350\212R=(\256I\275\205M\211\275\300\307\347\272^u\024\275\340\366D=\262j\\\275(\206f\274\230\200\325\274N(\203=h\360{<\375\014\013\275\366+\024=\200\222)\274\200\2100= \006\203<R\307\203=@\353\226\274\342\261\201\275B;\224=\260\r7\275=tg\275BG\227=\250\023\034\274\240\347\362<\264\356\006\275H\252\004=\304\216\223=V\255\014=()\244<\204\324\251<\322u\217=`\302\352<P\202=<\004\327\371<\017\272\202\275\310/\025\275T\271[\275\300\357{;\310\361\364<\220\321o<\270\251\233<0\333\325\273\350f4=\210m\215\275\024\316\360\274u/\022\275\304\321\227=\310r\304<~I?\275\330\'2\275F\363>=h\244\201=\3703\"<l\223\323<~U\330\274PY\344\274\000\211*\272\214\331Y\274\266\263\250\274FWY\275\346\271\214=\234\034\307<\013\360\200\275\370\3421\275\346m\210\275\210L\201\274\350\322\211=M\215\201\275H\032\324<\200\377\242\272\010\356]=\367\331P\275\232Ui\275]n\203\275d\177\017\275\260?U=d\262Z=\354\014\213\275\240\035\357<\223\210\007\275 2\225;bW\212=\242\021\017=.\030\365\274\364j\263\274R\211\025\275\200\274\217\273\344B\330\274\204\023u=\324\007\200\274\340\273r=\230\357\031<p\366\004<\300\343`\275\270)\215=\335\365\002\275xj\347<P\326\031=\240\037\273<\010?\302<\024\275\325\274\010q\027=\\EJ\274\250an<.\017\345\274 l6;\223t\030\275\010]C\275@$0\273\253\243\212\275x9{=\376\302G=\220#j=4\0336\2758\3405\274v\\\274\274h\255<=\240\317\305\274\240\367K\274\240\220\203<\206\272c\275a\321\206\275L\361\261<\370>\257<\200|\245\272x\032\026<\272e\227=H@A\275\245B\n\275\204\020\264\2747[2\275\300\373\033\274\324\007\205\275x\025\246<\2101\211=\230\006\001<\004\323\010=\314\342\336<\320w\374;\372{4\275\254\036\306<\237\025\203\275\333\365\n\275\300\334\272\273pB\272<\273P\201\275\200IS=J\0176\275De{=\312\307K\275(\"\217<\350\350v\275\000\264i9\300\022I\273\331\254\224\275\'\345w\2757\372\000\275\223M;\275H*\312\274,\3452\275\211\247(\275R6\207\275\032\270,=\274\007\241\274\030\025(\274\014$\310<\374\202\227=\340B\331\273\250\000\211\275\374\005\277<d\0364=?\017\222\275\300\221\264\273\320[\365;\000\000\017\273\354\362I\274\244\274\203=\002\251\021=@\265\211\272\310r\330<>\031\201=\267t~\275\350\344\013<P\325\212=\034\207n=\000p\017\273\314VF=\212\265\007\275`\203e=\000|\\\271\220d\222\275\024\352|\274F\001\220=nQ\374\274\236h\220=\310\240\032<\304\335R\275J\261\214=1G\020\275\'L)\275\200xT\275\000\232V\273\210C\376<\362v\017=\310\251[=`\244\010<\354\366\336<,b\213=\0243\347<\306\273{\275Ug}\275\272\247\206\275(L\264<T\021\007=\300[\t;\340\246\275;\200\267\314;\226x\217\275\326\243\207\275\224\034\221=b\276\n\275\374aP=0\323\345<\275\300_\275\024\352U\2756H@\275\336\336K\275\214\247F\274\230\222\341<\\\334\224\275F`\202=p\274\204=;\341\214\275\224,\270<\212q\222\275G\334=\275\204t\306<X\253k\275$!\223=\034\354\025=\206\023~\275\220\300\322\274\014\303X=,#\222<x\233\022\274\274JJ\275n\\\200=\250\312!\274\320\017k=\025\223\216\275\344\025\304<\306\317\224=l]\'=\362\3169\275Y\314M\275\240\002i\273\310\266\026\274\360mc<\2002@\274`\334><\332\255\022=0\374\340<\307V\035\275\210\301\212=\360\231\226\274\320\300\305;\2663A\275T>V\274j\363\030=\370\210\n\275\006\346c\275x\361}<\372\204\377\274\330\231}\274\256\257\037\275\3050m\275\266\357\212\274\224\253_=\020x\\=\374\034L=.W\024=j\231E\275|\010k=$\033\250\274\006\201\033=\010\375w<\240\r@\273\n\233\036\275\024\336v=\364\370\037=\340\347\177\273\210\264[<JM\022=\224w]\274\326\304\224=\360\3172\274\024\353[=T\244\312<\314\302\220=\330d\215<:!\245\274\336\223\344\274\000\307\216;\260\314\204\275\315\371\027\2750)_=y\r\025\275$b\365< \243>;\321\2328\275\244$&=\234\304z=\032U\204\275\026\253\204=\000j\220=\206\337\276\274,g7\275K;\005\275\277\210\205\275@\004`<\000\313_\274\\\321j=\t\227{\275\266\304\336\274\224\344\023\275\350\201g<\364\036\210=\001\242a\275\211\t*\275\200\277s=|\221_=\320\250\311\2738\327\330<\2305\037\274\334\213j=B\301\273\274\020\376\252;@\245\367\273\000\230\341:\245\000\020\275((Y=$R\241<C\251\210\275\370\344\205\2750\245\344;\344k\211\275\350\026\231<\220\202S==rf\275\364\337.\275\036\262\322\274\270\234}=j\255.=\020\275\000<\034\345P\274n\331\305\274M\031\202\275\242\255:\275\344(\007=\200\265\344<\\\246g\274T\276r\274/P\226\275\365V\221\275H\002\024\275\324x[\2756\254\221=\370nq\274\344`\207=1!4\275\253\020c\275d\213\"=\264\312\334<\374\372\230<xW^\274P\233\216;\210I\213<\260\355}\274\273\264.\275\250`Q=\321\351f\275\214\005\351\274 ?r;\264\333\010\275\004\311\200\274\300\356$<Y\024\030\275\200}\212\274\204:/=\240\360\352;N\316\377\274h\371R<\024\026_=\300\005\210=\374\341\260\274-\223\001\2754\363r=\2167\212=\010\340\002\275\016\245%=\247[D\275\016\245K=\314\254\266\274\220p\007\274\225\245$\275p\371\006\274T%N=|\327}=\316\270!\2750\337\224=\340#\270\273\240e\246;\000|\326\274\200\361\243:\257P\206\275\200\315\202\273\250:3\274\273\355\206\275\340Ib\273\354\023x=\\U\n\275l\034\377<p\221U<`\005e\2734e\240<@\226\223\274:i\255\274\310\312\017=\354\024\332<\366\325m\275FSU\275\246j\301\274\210$\350<H\361+<>\"\001=\274\256\211\275H7K<NJk\275^\016\227=\344\256V=\253S\037\275n*K=\030@B<\374\302E=\332T\212=p>\036\274 \262\345;-\274\036\275t\262\315\274\026?|\275\030\264\375<\210\214>\274p\265(=j\336\201=|\332\213<\230\236z\274P\216q<\342S\301\274r\261\315\274v\372\221\2754\227U\275\330\3255\275\250\257\026\275\220\0213\275\020\253B\275\270\243#<\354\210\r=\366\221\255\274\274J\252<@Lm\273\204r\206<N\237%=\316\276\340\2744L]=\364a\365<*~\205\274\320o\226=\312\247T\275\372^\243\274@Q[=\262Jk\275\032a\022=\014\272X=t\2716=\214\363\377\274\324\255B=\036e/=,0/=M\341\220\275\300\367\341\273\200\263\t<X\320\343<\350\247!\274P?\204;\000\270\030\272x:7\275\020&p\274\210v[=\270-\210\275\212\343\367\274\000\315\355\274L\";\275\206\370E\275\264\334\224\275 R#\273\230\270_\274\350\211\276<\314(\226\274h\3740\275`\315\200\273r\324\220=\350\226\024\274\214sh\275\316K\010\275\242\204|\275l8H=\240JQ\274\366\261\006=\260\351\221=\332\357\223=\036^\001=+\024\227\275Z\333\270\274\010\272n<\236\342\223\275\316\326\035=\032LM=\2009n\2729\254t\275p\341{=\000\016\213=`]\'\274A\210\'\275<\271n= \356z=P\3602\275\322\266E=*P\031\275\356\321j\275 \235C< \312\263;(/Y=\370\207\024\274\206\177\244\274z\275.\275\374\2255= \251\345< \346\235<\006\363\204=\254\337\362\274\366\377\031=\020\370\217<4_r\27507\200=\310\216\217\2758\261/\275@\303}\273\224\ry=\372X\025\275\020s\240<\334\025\204\275\2204\322;\304\337B=\n>\257\274\270\311j=tF\031\2756\002-\275\237q\200\275\363\264d\275\330\316\352\274\200\370\205\275h\252u=,\273\331\274\014\343Y=\0006\201=\206\344\206=\304\345\350\274\334\025\331<l\032\235<~\212\200=\224\371\256<(\3626\274\341\010\205\275 \002,;F\224\201\274\352\2019\275\254/\310\274\216\004,=>E\211=\336W\204\274\350\246h=\202\326\200\275l\2246=\210Z\207=\\d\203=\223\304\r\275\232\277,=@\261W;\264\3676\275\350\245J<`\346\267\273l%g=\034j_=Do-=f\306\001=0Ly=\030e+\274D\355\223\275\220\373\213=0J\036\274x\320.\274\327\265\210\275\340Q\377<!Q\201\275$3\220<@]\n=\250B*<\004\310\312\274D\276[=~\335@\275\374\300a=D\254\237<\300\344\245<\307\013\027\275\364\336\307\274\230\242[=<\267n=\020\3156\275\330Uy\274\310\266\347<\254\274\220=\230\227\026\274\034\334\264<\003\342c\275\034\251\223<\230\262|\274\\o[=Xvp=\270\270\022<\346\370\216=\020\332\203\273\340\202\013;\260\303e\275\334A\345\274\356\224\315\274\200\377\242:`He=v\347\027=%\005\030\275\254\024\217<\353d9\2759u|\275\276L@=t\336\202\275\240\033\024\2740H\332<\303\322\223\275\234\204}\275y\302(\275X\024Y=p\251\364\273\200\016^;\312R;\275@\344\006=\300-\236:\242\202\217=\206\246J=\370.\201\275\032\237?\275\220\270\311\273\224\306\353\274\322X\224=\276D\205=\023\\\226\275\350\rw=w_\003\275\006\245\335\274\354\376\220=\300\003\302;\014M\303<\301\244,\275\265`b\275$\200\203=\354\342\004=\257\242\024\275\2220\224=H#P\274L4\221\275,\001X=\2454\013\275\360<\251\273\017 \214\275\312\235\205=\310f\367<G\230\007\27588y<`-\r<O\344\223\275h_S=\035\340\225\275\200\332\365\273\024\346g\274\300\302\030=\360\253\314\273\025\255\204\275,\020h=\254\232\010\275\200R\324\274\2507\202\275jm\233\274p\262\033<X\213\376<6\232\226=\364b\255<\022x\223=\220\005\340\2746\357C=\\\217\300<~d\342\274\372\361\017\275\000\000B\265\200b\220\272\333%\223\275\270\343m=y\230\214\275\245\251\225\275*\370\220=w\321\225\275\367EE\275]\3065\275\000g\316;\200\262U\274\342I\206=EJ\021\275H\177v=\240\217\302\273Y\363\200\275N\221\225\275\366\327\201=\302\276\223=F\232\221=2\215;=)\341\201\275R5\220=<\333e=\334<\"=P&\200\273\010\002\342<\330lh\275\350\306Y<\216\347j\275\356>\006=*\362c\2754\317d\274PT\247\274\002tJ\275\327\312\037\275@\300\275\272n/O=\360\\><(uQ<X2n\275an6\275\340Q\353<x1K=hB\230<\210D(<\200\340^;\276\"\373\274\215\254\215\275\220\230&=\364n\216=b\234\001\2750Hu\274p4\261;\260H\342\273\320\006I=\364\036Z=\206\n\226=\220i\217\274\200\364\026<^\337\002=\366G\310\274Da\023\275H\260A=M\274\020\275F\026\215=d\225\230<\212Z?\275g\003\227\275#\362K\275N\257_\275X\220\254<$u\226<`\005j<\254f\210=\320\214B<r\253\203=`Sn\275j\313\225\2744\217\177=\372;T\275\212\311\216=\213T\227\275\000\227\021=(\370Y=\214\264Y=N\0027\275\026V\342\274\310H;=P\334\302<\034m\314<\276\240!=\340\272\013\274P\244\360;,\227J\275ZB\207=\354\262\203=H.\\=\000\2758:4\276\256<A\251%\275\270\3049\274s%2\275\274;^=\224f`\274Bt\206=\341\316[\275Rf\007\275\004\226\237<@w\246:j\343\273\274\322\356\016=\010\030\234<\244\274\230\274\372\356R\275\236\271.=\367\3041\275\234e\211<tg[\275p?]<@D\236\272|\tC=`n\215=\342I$=\320`\227\275`\373\003=\264\277\267<\3601\370;\340\305\334;\254\220U=,\334<\275\320P\256<\020\010\267\273\273\016\001\275&X#=\370\202-\274V\005+=\260\"b=V\007\035\2750\300X\275.C/=\204\021\227=j\241\332\274x\333V<\234\274_=\272uQ\275P\010h\275(\352a\274-\362o\275<Fc=.\036!=h\202W\274t\020\022=H\3326=X\324H<\340\322\000=\315\243\036\275\340\000B\2750\313\217\273\260\366\n\274\230\na=N\t\010\275\342\001E\275\024\241B=\3724\032=8\202\255\274J\2352=\324\255.=\334\"]=0\267\004\274|\026\206\275D\357h\274\266\260\"=\014\350C=\240`\232\274\020\210O<\356s1=\310\220\246<\020\002\001\274\000\204\002\271\250m`=\200$\031;\216\256<\275\330\326\267\274h\0209<\320x\350\273\372\001V\275N\321\350\274R\004~\275u4+\275(\203\205\275\270\344\205=\026&\007=\010m<<\016\323k\275(\212\350<\014\026\203=\364\177a=p\356\230\273T\002\177\275\004T\312<|\"e\275h\0352<\320\256R\275\016,\206\275@R\322;\346\002a\275\2648z\2740\335\010\274\006\025\001=\244G\205=\304&R=\206\210\220=\n\321Z\275\004\270\t=\000\327E\272~DV\275(\243M\2744;\237\274\\\200\037=6\231\246\274\036\204&=<\375\210\2740,==d\000#=B\2365=id \275\004F\342<.7==x\220V=\314\370-\275\312\246\207\275&d\201\274\200\265\262<\240\263f\275b\027!\275XM\023\2758\262\216\275H\227a<\352\226\004\275\332E\241\274\242\313P\275\336\033\214=v\332k\275\327Q\'\275p\3271\275\340\233$\273\255f\221\275\200\004i=jZ\036\275\200Uj<\240\016\017=\240i\366<\212\321\213=\000S\324:@|\032=\336\032v\275\351\303\221\275\240\266G\273\262\361\222=\332\214\200=\320\352\312;\301\312\010\275b$\364\274;\367\212\275tU\225< \331\344\273\254\276\006=\244\014\361<0[\214\273\370\030\361<X\242F<\016\250r\275\354\2060\275\263l\221\275\310\336a\274\204T\365<hW\303\274\260\273\202;\022\301\312\274\352t\211=\324\212n\275\010+\014\274\370\007\202=\000!\252\274\360\243\215< \252\031\273\020\"\360<\360H\375\274@/\\\275v\222\004=\300a?<\036\352\246\274@\206c\273\210(\307<\022\336U\275\276\233\263\274\377\232\020\275\350L\204\275t\206R=\352\222k\275\004\274q=z6\201=\210\304X\275`u0\274\027\264\034\275\250<\247\274 \003:\273\226Z\247\274\214\036\273\274\240\237\016=\034v~\274\313aZ\275Pj\223= \3102<\200-^;4G\224\275\265\002x\275\310\311P<v-\375\274\240\342\244\274\010u\213=(\274m\275\254\272\323<\320\264\261<\330\031d=\264Yb=\242\200\215\275\200\001\014\274\352;<=\230\3476<>\325\250\274V\226\017=\254\304\205=T\216\360\274(~\326<\003#x\275\304*\302<@T\265:p\347r=F\213H=\203\000J\275Lo\260<L\267\361<\\\254\210<x\315d=@\303\332\273\344\342V=\r\344?\275\274\321\247\274nY\223\274\030D\024\274\220\244\204=5\201O\275\034\216\211<\214l]=\340KZ\273\230r0=\310\354w\274\016N\214=\330Ta=H\005p=\250Wg<\260OZ=\224\202\273<\346O\364\274\000\341\203\271\006\345]\275\030_&<\250\030\236\274\220\305\273\274\204\306)\275$`d\275\262\207\200\275P@`=\000aI<\254g\234<\344W\313<6\253\203\274\250\2738\275\330\332\317<\236v\014=/_m\2750\017\200\275\323 g\275\370rx<\357\370j\275TK\221\2742\010\223=bPN=\n5\227\2754\031\001=\222\032\027=\000\010V8\207\022\036\2755\274 \275\200\244\201<\234\261r=\204\243~\2750\322\357<PS\200;&\031\213\275h_\347<m\023\221\275\240#\007\274\016a\222=\244\243\260<\200\374\013=\200\026y\274\330\266)=\034\327\206=*\245\013=\360>\216;H\227 \275D\257`=X\202d=\000\222\252\271>\356\005=\350&\036<\242+\212=\032\202\031=h\2777\274H\222\323<\260\307\341<\264\241\362\274\212|W\275\230W\341<\022|8\275l\252\224<\254E\316<\030Bv=\221Qu\275T\264l=\000\263\250<\254\304\200=jE\202=\300\202\033\273\232r3\275\344\201{=\355-/\275\200\373g=\260\245\202\273\326#W\275 \365B;\000H\013\273\314\332\217=e;\002\275\026\214O\275\034\300\252<\356O\206=\260\232\205\273\376\252\035=s\236\005\275\"!U\275\304\223\302<`\250\014\274\260\364\356\273\300\325\262:xk\351\274\270\312t=\001Gz\275f\230*=\333\014\211\275<d#\275vXI=\004IS\274\304lf=f\264\016=0\217\220\274\300y\257<\300\010\300\274\234Xc\275T\357\330<\337\207\026\275fq\201=@\264\036=~U\370\274\300\354\277\273\2007\033=X\266i\275\210\233 \275@\231\314:\034\000\222<\350\356`=\262\001@=0\272\020<X\367\232<P\357\310<w\322j\275\020\324~<,\331c=\244*\211=\032\275\231\274\220\005\313\273.\262@\275\020\004\204<`\232e\274\240j%\273@\310\224<\200\322\327<f\3351=\302\223\226=\234w\351<\260a\202\275\200\002\177=bO\367\274\020\323\337\274\210RE\275\340\332`<P\302\235;X\222\001<\t\010N\275\036V\210\275.\202-=\000H>\274|q/=\372N\202=hn\201=\220\274t\275 \325P<f\017\206=\200\277\316\274\214$\325\274P\363x=\370\240\020=\222_\355\274^\354\017=\014\327{\275HqY=:x\004\275\302x\027=j\276\203=\342\2341=\020Q\307;8J\202\275\200\352\323:5\357_\275<\370v=\274bp\274\234m(\275PO\200\275\264\275s=L\177\251<\240\2577;\270\334\205=\266=m\275P@,<\034\342b=\330,\340<\226\311L=&\010\005=\004\334\323\274\350\025>=\240\315\240<p\244V\275\224\237\021\275C\036\226\275\300\340#<x]E=\036\227\303\274\214z\251\274@R\202:\215\203x\275\300\3062\273\320<u=\330\211u\274\254\334\002\275h~\t\274\316\014~\275\316\223\300\274\340E.=XY7=<\270\205<Dff\275\330\221s\275n\314\373\274\360\261\221\273\275\005#\275\260\363\315<\350~!<\210T\'\2750\300p=\305\341\031\275\030*\214=\320\230\201=\310q\347<:~\205=\340\226\273;C\233-\275\306`U\275x~p=DN\362<\374\240l\274`K\223\275+\217*\275\204jp\275\224\376\033=d\260\277<\343\337;\275\266m\223=0\343\022=N\320C=\310U_=\2007Q\273(\203\365\274`\374\\\273N\026\273\274\324\3609=\240eS;\000\205\003=\t\362\214\275\202\232\221=\0327>=\310\245\212<E\202\221\275\202R\014=\312\300\217=\374\267L\275\022\263+=\340d&\275\314\314\323<\310J?\274bj\'=(*\375<|ho=m\315(\275`\271\375\274y\374-\275\300)a\273PT`\275`J9;h\277\231<\264\251D\275\240s\324\273!/\210\275\000\250\272;\344\311\351<P\3550<\340\246X;2\364\027\275\235\240\027\275\\\225\022=\350\001t\275\314\237q=h\336o=\000\317\233\272\030(\331<R?/=\332\351#=\367\007\030\275F{N=\355kp\275X\375L=h`\002\274\"\335R\275x\027\212<\300a\337\273\264H\306<W\217\004\2754\3501\275\270\333Q\274\27215\275\330d\236\274Xp\333\274\t\271\n\275\201\205\035\275\342h\326\274.\036I=\260Bv=\222\254\302\274\213;\200\275\334 #\275\320\211\225=\023l\014\275dj\311<\0007\340\272\234\317\330<1d/\275\332.\017=<#X=t\340\362<\360\001\246\274\010\205+\275\030\325:<l\332\363<\222\000\227\275\250I}<xy\217\2752l\215=\274V\205=\354\332\255<75\002\275\300\365\220=\350\010\000\274\\\375\222=\2035\217\275\0006\311\2714bV= \314\013<\262\342>=,\375\361<\020\271\234<\220\251i=\350\263&\274r\260\221=@\025\260<\344w\177=\260\0353\275\320+(<s\303\037\275\310G0=HcN\275\220 m\275 h\225< \016\313;8f\364<\334\211\305\274lR\352<l:)\275\"$\022=\220TU=\311\031\201\275\026\253\224=\020An=(k\030<\370\205,<\234e#=\250\340\316\274\220\242\324\273\256\363\257\274\320=\314<\340\364\333\273H\222b<\330\200.=\034~\225\275\334r\217\275l\364\026\275\354GS\275\200\031\361\273\2104\223\275\n9\022=\n#6=\334z\364<\310\\\376\274\020=b\275\320M\366<\341\222j\2750\302\030<\024\013\020=\200\222\203:\350e\223<\034\200\222<\340\335\030\274\342\306n\275\360\310\034\275\264\256\374<\030\244\363\274l;d\274\272\tS\275\226\304\226=\2766T\275\330L\220\275E\240i\275D\257\370<\214\316\354<\200\245\003:\220\261\327<p\314\312<L\202\234<\330y\277<1\0055\275\330SM=\250f\357\274\374V}=T\220l=\000\361\216\272\036x\203\274V\367\001=I\210)\275\210m\207=6\311\036=d8\240\274\246J==\026\321\223=@\301\361:v\360\223=b\3418\275\210E\023=k\354[\275\310\365l<\356\246_\275\000Gk\2750_\322\273\000\210\035\274,\005\341<\366N\215=\200\240\332:\222R\200=0o{<zVC\275\350!\031\274\316\342\026=\350\024\017<\224\273\031=Z\365\212=8*\371<xlT=(\205\034=$\252+\275\304h\356<\214\275d\275t\332z=\000y^\272R\224\226=`V\251<\200\006\000:\216\3639=\340^\270;\034\303\212=\014\007\223=]rg\275\300.f<\032\2425=\260\202\237\273\210\022R\274l\244\301\274\240y\203=\246Ri\275N\274H\275G\214x\275|\350\020= \325\330\273h\013\237<\2100\210\275\270d{\274r~s\275P\307_=\220o\321<H\200T\275@\2120<\300\020\315:\302\000}\275}\335L\275\024\265\371<04\201=\360\270\370;V\306V\275\372>\301\274.\244\357\274g\346,\275,\372\261\274<t\311\274\256\210\220=\330\2274\275\261\332_\275\240!\204\273\250\333<\274\212.>\275\242\377\204=\360P\004<#<\022\275\026\334?=\340\230*;\310\255\023\274\300\353g;c\002\020\275\236Pu\2750\356\214<\000\212\320\272\340LM<\242\035\303\274v\216\224=\246 ?\275\376\377\031=4\251\343<J\205\033=Xe\251\274z$\207\275\212\336\n\275@^d=\344\337^\274\234{\246<\244\252\213=Q\237P\275\241\310\212\275`\"\033<\200\222k;4\233T\2740X\350<0 \356\273\024\237\225\275X\342\007< \210\202;\304\324\353\274z\356\022=\304\264^=t\347i=\314\301\215\275\336R\206=Q\247,\275P\366\r=v5;=h\200\232<\250\237\305<\274\224\345<\242}\023\275r\307I\275\342]\226=\200\031\003\273\256\231\204\2754U\263<Qx\017\275\306\326\222=pz#=\367t\220\275so|\275`\326\230\273\320\306\t<PU\202\275\320\356\325;\354\\\354<\300\024n\2734c\177=\310\313\177\275&\242\224\274\360\336]<\312\252&=\034\224\271<\000Wc\274Z\335\342\274G\347\021\275`\274\225<~\356-\275\"gH=`\206s<\000)W<\354\225p\275\300\2226;\242\2667=\007\243Q\275^\225\266\274\034-\200=\024&X\274B\260\217\274\017\252\223\275<c=\275\306.\216\275\226\263\207\274\333\323\214\275\364\026@\2750\224\231\273\243\315\226\275j\321n\275\004x\204<d\255\021\275\361\300y\275\320\302\350;B\274Q\275]\027\214\275\230\334\205=<\254\254\274t\314\201\274\030\002c\275\320Kj=\310Q.\274\240\225&=\210l\013<\206\033\272\274\263\323\004\275FD+\275\240\361\013;\236\333@\275I\2374\275<\213\020=\354\027d\274\300E\223\274\314bu=~y\t=P\340u\275nN\033\275x\037\035=\256\322(=\332\347\001=\210p\361<\320\262\004<jC\216=L\2545\275\312\212\336\274\200\351o;\301\330\225\275\322`\254\274\3006\\\275\346\304/\275h\007>\275\340S\001<<\251\376<\000\'\207;\014\242\020=\0300\260\274\030\r1\274\362\2201\275 \010\263;\374H\266\274\200\240\240:\\\323\220=\202\356h\275\360\250\202\273\302\3227=\330u^=<\367R=\364\020\022=\344M`\275r\006\203\275\342\2405=\222\373%\275|[\220\275p\361t=\200\331W<\200i&<\330]\237<\300\t+\273x\007G=\3100^<8y\340\274\016\303\212=n\334\275\274\250\004\277<\300\343=\274\364V\217<\246\333\205=\240\333\350<\3102{=C\005\211\275t\334\211\2750]}<\243\261\027\275\336\246\362\274:cC=\260\014J\274\354\364x\274d\036\356<\360\274\t<\177\222>\275\240E\212\275\340+\220=\334\362v=> t\275\306g\273\274\3730\002\275L\376\014\275\370\000|\275\230\\\r\274\200\332|=*\271\024=\304\302\330<\244\353\210=\366\367,=P\010\355\274\0149\370\274\266m!=@oy\273&*\214\275\340M\220<\000Up\272 p\021<\374\244b\274\220\272\030=\233P\037\275\000\360f8\3211\202\275\016\341+=\266\304i\275\010\026\203\275\372\201\200\275F\337\222=\221\336\222\275`7\010\274@\031\206;0)j\275\272\350\026\275R\270\234\274\004!\234\274V`\220=\022\007)\2754\372\375\274\372D6="
      }
    }
  }
}
node {
  name: "conv2d_1/bias"
  op: "Const"
  attr {
    key: "dtype"
    value {
      type: DT_FLOAT
    }
  }
  attr {
    key: "value"
    value {
      tensor {
        dtype: DT_FLOAT
        tensor_shape {
          dim {
            size: 64
          }
        }
        tensor_content: "\000\000\000\000\000\000\000\000\000\000\000\000\000\000\000\000\000\000\000\000\000\000\000\000\000\000\000\000\000\000\000\000\000\000\000\000\000\000\000\000\000\000\000\000\000\000\000\000\000\000\000\000\000\000\000\000\000\000\000\000\000\000\000\000\000\000\000\000\000\000\000\000\000\000\000\000\000\000\000\000\000\000\000\000\000\000\000\000\000\000\000\000\000\000\000\000\000\000\000\000\000\000\000\000\000\000\000\000\000\000\000\000\000\000\000\000\000\000\000\000\000\000\000\000\000\000\000\000\000\000\000\000\000\000\000\000\000\000\000\000\000\000\000\000\000\000\000\000\000\000\000\000\000\000\000\000\000\000\000\000\000\000\000\000\000\000\000\000\000\000\000\000\000\000\000\000\000\000\000\000\000\000\000\000\000\000\000\000\000\000\000\000\000\000\000\000\000\000\000\000\000\000\000\000\000\000\000\000\000\000\000\000\000\000\000\000\000\000\000\000\000\000\000\000\000\000\000\000\000\000\000\000\000\000\000\000\000\000\000\000\000\000\000\000\000\000\000\000\000\000\000\000\000\000\000\000"
      }
    }
  }
}
node {
  name: "conv2d_1/convolution/ReadVariableOp"
  op: "Identity"
  input: "conv2d_1/kernel"
  attr {
    key: "T"
    value {
      type: DT_FLOAT
    }
  }
}
node {
  name: "conv2d_1/convolution"
  op: "Conv2D"
  input: "conv2d_1_input"
  input: "conv2d_1/convolution/ReadVariableOp"
  attr {
    key: "T"
    value {
      type: DT_FLOAT
    }
  }
  attr {
    key: "data_format"
    value {
      s: "NHWC"
    }
  }
  attr {
    key: "dilations"
    value {
      list {
        i: 1
        i: 1
        i: 1
        i: 1
      }
    }
  }
  attr {
    key: "explicit_paddings"
    value {
      list {
      }
    }
  }
  attr {
    key: "padding"
    value {
      s: "VALID"
    }
  }
  attr {
    key: "strides"
    value {
      list {
        i: 1
        i: 1
        i: 1
        i: 1
      }
    }
  }
  attr {
    key: "use_cudnn_on_gpu"
    value {
      b: true
    }
  }
}
node {
  name: "conv2d_1/BiasAdd/ReadVariableOp"
  op: "Identity"
  input: "conv2d_1/bias"
  attr {
    key: "T"
    value {
      type: DT_FLOAT
    }
  }
}
node {
  name: "conv2d_1/BiasAdd"
  op: "BiasAdd"
  input: "conv2d_1/convolution"
  input: "conv2d_1/BiasAdd/ReadVariableOp"
  attr {
    key: "T"
    value {
      type: DT_FLOAT
    }
  }
  attr {
    key: "data_format"
    value {
      s: "NHWC"
    }
  }
}
node {
  name: "activation_1/Relu"
  op: "Relu"
  input: "conv2d_1/BiasAdd"
  attr {
    key: "T"
    value {
      type: DT_FLOAT
    }
  }
}
node {
  name: "max_pooling2d_1/MaxPool"
  op: "MaxPool"
  input: "activation_1/Relu"
  attr {
    key: "T"
    value {
      type: DT_FLOAT
    }
  }
  attr {
    key: "data_format"
    value {
      s: "NHWC"
    }
  }
  attr {
    key: "ksize"
    value {
      list {
        i: 1
        i: 2
        i: 2
        i: 1
      }
    }
  }
  attr {
    key: "padding"
    value {
      s: "VALID"
    }
  }
  attr {
    key: "strides"
    value {
      list {
        i: 1
        i: 2
        i: 2
        i: 1
      }
    }
  }
}
node {
  name: "conv2d_2/kernel"
  op: "Const"
  attr {
    key: "dtype"
    value {
      type: DT_FLOAT
    }
  }
  attr {
    key: "value"
    value {
      tensor {
        dtype: DT_FLOAT
        tensor_shape {
          dim {
            size: 4
          }
          dim {
            size: 4
          }
          dim {
            size: 64
          }
          dim {
            size: 32
          }
        }
        tensor_content: "\300\270J\275dvr=\000\264\346;$\024\022=@`O\275ly\034\275\000\206\344\271\000\247\032=\000\346G=\320\t><`5Z\275\250\321\331<p\305\366\274\200\317\355\273\2003i\275\3600/\274(\343\213<\340\\\004=\360\370}\274\320M\251\274P\215\264\274\000\3428\272 \2607\2748\001x\275h\230\\\275x\256\254<`T,=\000\303W;\250\025\257<H\311*=\314\337y=\004\035I=p\2776<@\032@\274\004r[\275T\273%\275\264\366h\275L\310&\275\014\230\025=\000\314\355\274x\r\227\274\320\301e<\254\254Q=\340a\356\274@\344)<\260\202\020\274HY\342<d\3600\275\000\231\252<(A\210<\200=\004;8\340\363\274pJn=\340\230\024\274\020a\010\274\240\252\231\273P\376\234\274\3544\024=\000\233)\273@\304\022\274\3743w\275\264\361\005=\200\300\332:\300\377\001=\350-\243<`d\004=\200(\302\272\274Gy\275\3506\004\275\330Y\013=(\353\260<\270J\273<\360\3553<\320\262\234<p\210\315\274<\301i=8h&\275\250\375\006\275\320\353P\274\354\205`\275\214j[\275\010\211\362\274\034x$=\320]\210<\210\311S=\270g2=\324\0236=\33461\275@H\n;(\025X\275\3008\235\274\200\001>=@F@\273X\363\032=\260\327\013<L\267\001\275H\230\322\274\370Y\272\274\010\315o=xW\241<@\274\255\274HQ\"=\000\363\310:\200G\255<p\201\341\274\240\225\001=4Bf\275P\303\030\274\360\303\315\274pa\255\274\320eY\274\200@\334\274\320&t<\2240\035=`\345\306\274\304\260L=\250\241\022=\200s\010\2730\277\316\274\370cZ=\000f\'\272\020\271l\275`\331v<P*m=@\203\223;\340$\033=\200\322\341:\220\035\010\274\300\336E;\230\301\371\274P]\024\275\340\312\261<d\026U\275\240I+\275\260\241F=\020\036M\275\260\224#\275\260\377\207\274\330O\215<\340\314\254\273l\002\013=\374\240:=p\215B=\300C\340\274\240\221\233\274\250?\236\274\314\372\\=\354\'0\275\240\273p\275@bN=\304\244N\275\270\333U\275<I*=\210\275\036=\344\032\022\275\3347b=\234a1=pF\271\274\360+c=\300R\177;\300\231\005<\220\371\212\274\200\036\223\274\360\370b=\254\334Q=\340\306\323\274\200Wg<\300\266\230\273@\035p=@\265\013=\320\354\357\274 u\365\273(\214\301<\020\007%\274`\177\237\2730df\274\270\305\\=\030\326\304\274h\354\211\274\340\246\216\274$O|\275\\\345F=\\-3\275Dz\024=T\326\010\275\230gp\275\320H\270\274\274\245A\2758\300\314<\200Wk\274\310w7=\000)\240;\374\220B\275h\251R=`!\276\273\014\244,=\200x-<P.\022\274\314\"v=(\003\364\274\220\226\227<\270\323e=\260\017x\275\200\261\316\272\274\221e\275\2008\224\274\014\343_=P\355D\274\220\370,\274`\254\305<\320\201q<\2540\006\275`\371g=p\326\031\2748_\363\274\334_\034=l\210E\275\360:x=\250\247\031\275\220SR\274\340:\363\274\230\247\023=\010\007k\275\300*\350\273\200\342.\274 \000\275\274\030\243$\275@Az\273pTk=P@b\274@\253)\275\334\236\"\275\210\334\240\274\000\343<;\024\275[=\000v?\275\000\245\350;\020\231\301<\360E\001\274\204\r\010=\230\234B\275\234\247g\275\204\325+\275x\350q=\360Bz\274\300\230,\274H\222\"\275\000\253\241\272`\211\037< \320\016=\320S\307<`\262c\274\010\246@\275\200\212\004\273x\273<\275\264\244n=\314|*=\354\',\275\364\250y=4\231Z=\030\352*\275d\002(\275\020QB<8\337\352<0\345\353<\230\300\272<@`\277\273\330\353\022=@\2571\275\020%$\275\000l\2559\360\303\305<\304\2450=\220(*\275\200pQ\274\020\241R\274\000\214\005:\310.b=\200\003/\273\240\337\001=\340M\242\274\2408<=\314\350\031\275\000p\224;\200\272\267:(\225r\275$\361;=p\177\311<\320\343.=\230\320\204<\200\261\270:\304wT=,\234w=p1E\2748\254\227<\340\007\204\273\020cK<\324\364;=\240\202\024\274\000p \273X\272M=\300\004\240\274\000\254\263\271\214\n(=dK\030=x\304\370\274hx\010\275\270T\336\274\340~Y=\200\026\350;\340\007\362\274\250\307.=\260g\020<@\373\233\273\250\350>=\264?e=\300\342x\273\214+&=\250\266\226<\310\217b=\200\237\346<\250\006\\=\000e\241:\014\330X\275\320\321q\274@Y\243;\010vh\275\340>\271<\360\203\\<\330\230\364\274\254\346W=\000\370`\271\210,\326\274\210\035\246\274\274\310~=\220\211u=@BK=\254)~\275\360\n]=@V\010;\334DW\275\240\261\330<\014\2137=P\001\302<\214\346\031\275\274\277^\275D\334F\275P\\\215\274\020>u=\254d\013\275\030\261P=x\316\344<\014l#\2758\313\032=@\367\336\273H3\350<\224M)=\200\275h;H\210\235\274\024\226T\275\230\306\223\274\350\"\204<,w\031\275p\353c=h\327\341\274\360F\023=p\303\035=H\264\324<\210Q\346<05\253<\234\030k=\320t\277<X*\217<\0101\017=\350\331\261\274\340\351\\\274\000\3546\271\200V\231\273H`\221\274\354kH\275\3705\233\274\234\376\007\275\210+\234<@\023U=X\026$=t\370\031=\220~\362<h\\\303\274\234\345J=\214%e\275\200\005\217\272 \310Z\275\204\3432=\010\206h=(\007U\275\350\317\233<x\314\224<\254\247z=\224\203,\275\200\321!\275l\302c\2758\360\331<\354i\035\275T\3662\275\2308z\275(p\261\274`TC=\264\347\001=\200\317\016\273@\226~=\244Nm=4\277:\275\344\346\036\275\0244\n\275\000B\360\274<\030b=x6\363\274\260\262X\275@\274\205\274\000\344,\272\300\235\247\2730C\236<@\333\256;\364Mx\275\250\330\373<\324(v\275TZ]=d\361p\275\\\300\004=$\255)=\330\240\231\274\210\362\364<\240Y\333<XR$\275\364mr\275\220c9\275h>\242\274\334\222p=\270k\036\275Dq|= \336\270\274\240\321\371\274\000@K:8\231\334\274\214\340\r=\210\r3\275 \234\366\273`\215\365;\260\006\351<<\260E\275|\246w=T\202N=\320?\254\274\000\372\230\274\030#8=P\201\354\274@0x;4\247?=\030+\251<\234\275\t=\030\365\356\274\270\243@=<\257_=<\205F\275\260\221\004\274tMq\275@\200\361\273\020\336\222\274P\225\351\274\\\026D\275$\\\034=\000\255\005\2758bX=\000Q\320<\300\206Q\274\210\331\200\274\220z\006\275H2\n\275`UJ=\\\260n=\3643\024\275\340?J\274h\2053\275P\310\325<\260H}=\330#\031=\364\320\035\275,^@=\000\233\022<\354\351v\275@4!=$\3157\275\220\371X\275\360\006i\274\250\372\243<\3443\021\275\260\341{<\020\223\225\274\000\352\304\271l\275~=\234\230}\275\360\206\024<|\351\007\275pP\232\274\354\220\n=\364,0\275H\026\306<`g\331<\200;\231\272t\223`=`$\264;\324\001Q=0M\036\274`\"\237\273\330\212\002\275\010\301\376\274\000`\001\270@\332\310\273\370\340\305<\220\335\320<P<2=\300\372F\273 #\324\274\330\323\202<|Z\022\275X\273-=\000\325\202<\270\215\213\274`.\277\274\004\241V\275h\'\231<\354\220w=0:\264\274\224p2\275\364\312|\275\240\353\376<\340\325\316<\220),\274\200(\006;\234\0005=\254\2370\275\000-\331<\274R7=\200i\313;\360ZJ\274Lst\275\230\230\243<\2448[=0FC\275`M\377\273\304\344`=@\004\375\274\320\265W=h\005o\275p\337\230<X^\217<\310T9\275\020\2478\275\260\0332\275tS\000\275\314\275\021=H\031\211<00v<\360\302\035<\274\355[\275\360\220`\274\340\275\364\2740/==\000v$\274\204\177==\020\'=\275\004q<=\200\222\036\274p\345\002<\350?\314\274\204\200)=\264\321V=\200p\262:\370\201-=\230\247#=t\3146=,fM\2750M =\350\311\002=\300_\337\273\234\341v=\340x\241<@\\\317\274@\313\266\274t\236@=\330\022\341<\320B)\274\270MR=\250\332/=\304jk\275\264\374\'= \370\216<P\254\025\275\000\3735\275\320\360\252\274\340\241\n\275\310\321\353<@j\263<\200\332\372<\240\202\343<\360\310\364<T\327*\275\244\242s=\350\036\262<\334>\026=\020\355\324\274$nw=\254 \027=\324\025\017\275\310)R=0\335q\275\000\331S<\360\020$=\224\306*=\000E\263\274\264\371W\275\340\223\255;\000\210@=\260R\013\275\224\007H=\030)\320<\2603\230\274\364\t4=\030(o=(l\007\275\240\"\010<(\246\243\274\200\007W;hcd\275@ub\273@t\365;\210\023\342<@\335t\273(\211\246\274\220\000D\274\000\354\361\273\214\271q=`\361J=\240\325\307\273\000h\3658\210\022V=\300\2619\274\020\024\343\274\314\2054=\310Sf\275\250\271\332<\210\350\230\274\240\"\342<h&^\275\330/\017=\000\204\027\271`\350#\275dH\003\275\010\014\334<H\2516\275\320P\332<H\020x=\320\336\177<l\223\032\275h\345;\275\340\216\023\274\204\217\'=p\346r\275\214\307P=d\031P\275\330S\021=`\024\250\273Dyo\275@y\324;\244\3135\275\200\345\362:\340\027\342<\200\360\311\274\310\313\312\274\260F\013=p.\234<\000G\233\273\240\036\317\274\200\023\032\275\014O7\275\274j@\275\350\022\'\275`y\227\273xYY=\204\362p\275\310\260q=t\227\002\275\300\306y;\220oN\274\200\376\351\273(\355\334\274\370I\214<`\337\275\273\244\004}=|\022N=\360\214]<8\321\374<@\017?\2730`\371\274\010\225\007\275\220Fz\274\204MP=\370\017Y=\010\352V\275\310\261r=Hk\243\274@6\314;\224ua=p\356I\274\340\017\207;D\3438=@\340N=\340\337z\274\000\223\353\274\224\3342=\000\270F\271\230\274\336<\334\004H\275\300\252\027<\000\256n<\2006\277\273\260z\274<\220\353\330<P\207\277\274X\020==\200}\r\274\350Wg=\200K\036\273\200X\225\272t\314H=\220\020\006\275@\220l\273\240\260\361<\304\374A\275\324\316\037=$&D=\240\365E\275\200\323\272;\300x\230\273\250\243\250<\030\355B\275\320\271\230<\010\263s\275\340^~=\320\035\204<\340\331\315;\000N\006\272\3308\252\274\330\316K=\340\365\262<\3209:<\3002\005;Xq0=\364\302\035\275\300z\016\273\300\250\301\273\350\010\270\2748y\321<\200\222\362<p\304\215<\024\\{=4\3118\275\330*\356<\204\322s\275H\0032=\304N\027=\000h=\275 \315\254\273\004\223+=\340jT=|\tK\275\000\031\323\273\370\006H=\274\355\t=\020-.<P\340\r\274\210w\276\274\300\215\257\273\300\201m\274\320\201\033\274\360\355\025\274\200\330\246<\240\217\234<\264c@\275\030\004\030\2758\261R\275\250\254\004=L(g=\350\003q=\374\244x\275\300\232\036=\330_\352<4\002\006=\2302k=t\342j=\000FM\275\234\007\037=`\376\322;\300\021\260\274\240|;\275\000aG\273\250\314Z\275P\254v=\230\n*=\270&|=\324;G=`|\010\274\234g9=\300\202\021\274\224b\023=\340\315H\274\340\\\016\275\000\251\206;HJ{\275|lX= \273#\2748\364\304\274\340\256\377\274\034\345|\275\310\243\263<\010\017R=\014\265\014=\374\340Z=\250\005Q=\370\264n=\240\3238\274\300\0233;\220]H\275p\355P\275 %\307<P\312f\275@\005\366<\000\257k:\360ev<\02032=\270\266\t\275t\277!=8\325`=\210\326c\275\030\312\361<\304\307&=H\257\017\275L\232#\275\310\344\317<XV\352<@F\315;\220\362B\275\220\002\037<\220\350\022<\330\336P=\200\361B;h\354:\275\220a\003<\320dN=\320F}\275\360\253r=0\014\227<0P~<\240\007P\275\030\\\017\275\304-\033\275hX\330<X)\372<\240\274G=\224Lv=\360\\i=\010UW=\200\005\226;L\305g\275,: =\270\327\023=\030\t\010=\200\032@\274(\335\216\2744\350:\275\364Hw\275\240\341\263\273\300y\n\275<%A\275\240\204\233\273tzr\275|\020\006=\320&c\275\270?\204<`\014n<\324\355k\275\240Ja<\250\242\252\274\300}\177=\344\317S\275\300\2176\273\210Er\275,\365-\275(\235<=(\336\332\274$\313q=\220\373\317\274\340\211\014<l\233:=`\314\355\273\004\215y=\000Ji\274\264\217*=0\2547\274\0347\001=t\200\007=\264B4\275\014\252\003\275@\345\003< \016\352<\010f)=(\377\264\274\214\362\027\275\204\254d=\360C<<\204\276x=\030\3176=\260\032\252<\234\357_=\330\2624\275\214\345S\275(\265d=\334pS\275\340T6\275\370r\341<0WQ\275\310$\253<\200\355\275\273\200Q-=`\243\261;\\\205c=\350EL\2758-f=H\241\301\274 \003j\275\210\\s= \000n\275\300\270\311<\270\244\332<\0007\272\274t\003\'\275\214?V=\224\2150\275\014\222b\275\260W\262\274\334k\'=h\375X\275\360\211}<\240\215\233<\030\305\023\275H\030\262<\330!\317\274\020D\264<P\303\\=\000H\205\273@\371\204\273\024Fv\275\200\272\272:\220k)\274D\031\002\275`H\356;\274\356L\275\340_\241\273\274\210c=\020\227==\204\236n\275\010\\\216<\300F(\274\314\033c=\230\352/\275\204iu\275\300\267i<\264\3478=\224\251S=\320\303m\275\020\306q=@\037Z\273\340\325\037<\334\340\033=X\ru=\200\342H\273 UQ\274\300\317M\273Hl\261<\350\222\317\274\300\337\304\274\354\220?\275\020\230\220\274(\205\301<\224\220\005\275,`\024=\3244C=\230\177\027\275\234EE\275\310\256\002\275\020\312_=0su<\370\242o\275`\370\257\273H!X=\020yF<\200\002\322\274\000/\341<\000\371\265\272\200Yf\274Hy\271<\004Zg=\300\241\231;8\206\374\274\340\247\310<\340E-<\000N\321<,\335\010\275X\013*\275x/*\275\220m\030\274\300\367\317\274\220\377\r=\274\272Z\275\330L\241<\320h6=\030\244y=\354\360U\275\030N5=\000\260G;\220Q\222<\200=:\274\020;\375<\300A<\273\354ok=@AS\273\210%S\275\264\375?=@i\247\273\030\336\270<\000\377\364:\204\211r=Tf\\=pS\"\274,\214-\275\200\206\206\274H\"\224\2740-\007\274\324\346\034=\344\314e=D\332Y\275\320O!=\244\313]=\220\256\362<d))=l\267\003\275\230\301\343<\020g\030\275 B\275\2748\225\204<8*\230<\360\231w<\340\246\014\275\200)c<\300\310\327\274\200\202\007\273\310\373\211\274\244\272(\275\020\334Y=4\301.\275\350\341\200<\360\246B=\274\003\177=\000B\2739\340\207\224\273\004\262u=\254\027I\275\320\310T=\000\330\361;\3709B= \013\001<\000\220\253\271\200`C<p\310\010\274p+|\275\270\340N=\350 Y\275\000\305\372\274\320\202T<D\261\000\275\340i\204\273P\316]=\270\216S\275\024\366.=(\264i=`\322\312<\274\024-\275<\373p\275\010bW\275\340m\032=\024\366\016\2754|$\275\020\"\303<\000\277_:0R!=\360oy<\240&\325\274\230\372U\275\210\260\202<l s=`\326\000\274 \241\022\2748\320\022\275\000\320\376\272`[Y<\320\264R=\254\360:\275\360\257\002\274\010Tc\275\220!\002=\030(?=h\321\256<\020\333H\275\350\364\006=x\206|\275\034\245<\2750AP\275`\236t=\240\272\036=0\037\244<\030m\311\274\3407\006\274\224\337q\275(ZQ\275\240\003\267<4\276Y=@\020_<\340\347\255<\360x,<\200Jl;L\350%\275`\000\311<\014\222~=`\245\013<\250\002[=\270\356y\275\200\275K\273\300\036\315< >\206;\324Ul=pi\327\274P\034D\274@V\255;\200\272\277;0E\324\274\300\342\367<\250\252\254\274H2\211<\260z\025\274 \341^\274<\r\025=P\023\266\274\340\260\221\274\024\217(\275p\377\020<P\221f\275\300\321\313;p\020\370<\370Y\214\274 UH\274@r$= 7\315\273$\3233\275p\315\256<\300\241\030\275 \223\212;,<D=\340\355V\274\210\324T\275\234^a\275\200\032\225<PdY<H\246\365<\000a$<x{\013\275\200\204Y;\\px=`\344\027=\3406\216;\200\237\272< \020\341;\000\300I\271t\314B\275$VT\275\030\332G=(\334)=|wV\275\2400\306<\220\037\272\274\340\014^\275\230\261\211<\02437=p\234\031\274 :\'\275`\001\305\273\030\257\"\275\230M\243<H\201\364<`\2148<H2g=Px\365\274\310\222.\275\220T\275\274\260\r\241<\034\351F=\270\365\277\274\350\350\331\2740\037\030=\364{\014\275\374\347m\275,\206\010=,@B=8\361\353<\240\232V\275\270\364\006=\010\277X= \303l=@\177\256;\210X\311\274D\315R\275\210\033z\275\324\013\037\275\220\222_\274\200\0246\274\024\247\"\275\350\230\206<\364\347]=\0241\035\275T,:\275\340\003\276\274 \301\236;\010\026\206\274H\007\210<\374?\005=\220\327\342\274\300lz\274\304\326\001=\364e\031=\360\333-=\344\t7\275\200\371)\273x\374\371<\220Fi<\330A\210\274\224tG\275\364\321\001\275\020\356\340<\220\te\274 \234\306;\300\374\220\274\000Yw\273pk/<(S\261<\244\353\030=D\222X\275h\274\314\274\300\207\202\273 U\246;P;\'\274\334P2\275\034\346N=\024\006I=\350\271i\275\224\207Y\275\320\210\025\275\230\341V=\340\373_\275\360v\032<XR\362\274\370\324O\275\220\314\226<\214\221{\275\340\272O=\000\215\365<\014Hh=0\217\267\274\300\335_\274p\273`\275 b\376\273\340\363]\275\324\230?=\030\334\327\274\300\373\207<\240\237\021<\254x8\275 T]\275\000\335?<\210\254s=\300\024\031<$\025)=\224\336S\275\374\016^=\300r\033;\240\267\360;\200?$\274`mG\2748\372r\275\000\263u<0\330\322\274(\211\237<\000\345Y<\300\324\374\273\210I\365<\010y\225<\360\004#=\250\342\016=\260\026\267<P:\"\275\014\007?=(\346\347\274@ \222<\200\240\331\273\034\2303= \236\305;`L\343\273\000?\337;\300\356\r\273\000WY;\240e\"\275\320\304<\275\350}\350<\000\255\010\274\010\327\014\275\230zY\275\200R\330;\020G@=H\034\001\275\330c\251<\320\251\271<h1\316\274H\337M\275\200Y\332\273\034\211@=h\245\177\275\200\334\205\272dC6=\004=9\275X\360\016=0\322\245<,5c=\3405\316\273\340\302\347; \000\017=\214aY=\340BC\275X z=\200\231V;\340\023\227\274\200o\014\275\330[O\275\350a\337\274\300d\260\273\334\264u=\300\2176;\200\003\001\275\324[\000\275`\\W<\250\326m=P\245==\030\036S=\010\357\'=\240\264\325<\370(?\275<7p\275\000\026D\274\000$B\273\000V\233<\360\257C<L\200_=`\013\342;\320Q\261\274 Za=\200L\177=\010M\340\274@:U\274 ?\246<\340\300x=\000\252K= \264\334\273`_g<\014\303K= P\324\274\234\314Q\275H\001\221<t\363*=\030\266\025=\210\202\207\274\200\0247\273\300\032\305<h\204\241<X\031\305\274\034\251J=t\006,=X\241X\275t\377p=\330VS=\340\263\033\274\300\005\275< \303N=\014\203C\275\310\n\307<\330d\377<h\352\236\274\370\361\023\275\2301N\275\374\3078\275L\032N\275p\332@<\240\3034<\024\276\020=\244\216\031\275p\303t=\340\217\224;\010u^=\000\026\014\273\260]~=\324&B=\000l\235:\010\370\324\274\214\327\027=\350E\264\274\220\357\231<L/T\275,\333.=\230\241\363<D\026P=\364\351\035=\240S\350\274<CC\275\030CN\275l>(\275\000\256\025\274\034\006 =\340\3548<x\236\212<\000=0<\000\330\257\270\254\270Y=\030m\320\274\300[5\275\274\205D=\214JL\275H\220X\275`F\350\273\360\355J\275\230n\330<X\364\301\274`\251\023\274\320\343v<H\251\027\275`x\256<|\216N=\260+\341\274\200;\324\273\270c6\275P\356R=\270\335\204<t)D=\260\'\226<\360\322\t<\274\3755=\300\364\344;\350\014\227\274h~\340\274\334\2729\275\304\333\"\275\230ZR=\374K\n=$\223\'=\000T\367\271\020\202>\275\200\321\212\273hsZ=\330\001u=\300\246/\275\000\343/\275X\214_\275`%\360\274\010\324\033\2750\216G=\370\025J\275x\225N\275\350\014\275<(\343\261<X$>\275\260\307\007\2754\214c\275\230\316\326\274\3644a\275\200\340\214\274@\2529\273P\234+\274X\260\355<p\0109\274L\360\027=(>\366\274x\310\250<\020\376\345\274(\210\344\274\354\2027\2750\341\323\2740\320\025=\320\317\021\275@\305\346\273\200\303\344\274\300\244\007\274\200\033\234\274\000\306\2569h\005%\2758\000\r=@\340\345;|\336\"\275\344@)\275\260O\003<\320{\333< b\326\274\020\031=<\370Y<=(\245\177=0\323:\274\200\365\271;P\262a\275D\374E=\000D\357\272\000,\216< gp\275\000\010d\274\270zf=\000\340\2238\330\030\312\274\304\343t=h\0322\275\2203\n\274\370|\377\274P\314k=@\035.< Zs=`JB\275\310xe=\340\273\004<\200\177\004;\300wG<|\'\026=\220\327l\275 \341\311\274P\001\013<\340\371\362<h\204\366<\254\240$\275\\\002d=\340\344L<\354\326d=\334Ta\275\360\267j\274\000/\364\274\360YC=dvQ=\350\274\243<\350+L=\200\260\204\274\250\264\341\274\2007Z\274(\210o\275\330\326\254<4jl\275\354\rx\275\250\000\211\274\370\337\'=\\\213\027=H=*=@\266\263<@\272~<p7@<\234\370O\275\200@\031\274hL}=\004\274\003\275\020i\227\274pu*=\020\314n\274\274ZW=\220\323q\275\000>\345\273\350bx\275\2400\031=\370^\367\274\0207N<\240\243\326<0\270\n\275\240\262\003\275\250\352\256<\300\373q<\304\274}\275H\250\356<\030\\(\275\220\344\007\274\250\246\315<\000\252\004\2730\n~\274\270\246\t= \230\300<\000q^=\330\357\377<@ir\275\000ld<\214\006\007= \016\224<`N\266\273\000\330\002\271@\007\337\274T\201U=\020ZD<\310\327\242\274\200\232\217<\260\253\202\274 \341\202\274\264\277u\275\274\362+=\350\006u\275\374\232\017\275\240\253\262\273\320\3714<\210\367\t\275\020`\345<\204\361.=\240\375\313;\244kn\275lE\032=\000?\251\274\224\023T=\334\007\'=\374.\023=$\t9\275\270\032\215<\260\351H<\374M,\275\240c\311\273X\365\216\274\340\332\355<\250\231$=l\277\032=d\030\000\275\350\211\216\274@\334\"=\030\020n\275P\037\326<T\376z\275\350g\264<8r\346<\214\263;\275t\233^\275 \376\344<\224\026>=\300W\311;\324Ch\275@\035\001\275\270\317\261<\300_u\274\270PZ\275 \223\257<\360\301\276\274\330gn=0\234\333<P\252g<\344\344G=\320\016i=L0\000\275t\307\027=\230\3240\275\364\232T=\004dc\2754\266h\275\260\370i\274\200s\222\273\344\254\030\275\330\300\236\274\200W5<\340\025n=\020]X\274\004\341T=\244\r(=\300\243\235\274\010r\025=\000 \266:\260\"Z\275T+/\275p\266P<\000?\233;\354\270>\275\264^y=\310\027F=\200\217u=\214\254$=\340\0277\274X\244e\275\240\330\020\275x4D\275\3107B\275h\217\301\274\320m;=\250\n]=\000G\216:T\362x\275\330kv\275\000\340F\270\274\375Y=8\252c\275(\027\036\275\000\266`<8\321:\2754M$\275\274\351]\275\360\224\273\274`\373C\275P\251$\274`x\231\274`1\000=\300\006p\274\360\332\362\2740\376\210<\264\375a=\2503X=x\322i=\200\351\247:<n#\275(\211\244<\300\246\301\274\230\225X=<\344\r\275\214\035:\275\360\230\207\274\210\332B\275\330\352\242\274t1\002\275`\005\226\274,\253P\275`\263\217\274\250\332h=\000\241\365\2740\222w=`\214\347<\210\324\330<xE\240<\230t\302\274\320\374G\275P&t=\254\361Y\275\300V\207;\304\2758\275\360\365\326<\350\342}=\200o\205\273\000\366\312:L\021\"\275`\233C<\030\377^\275,\206.=\330\301\332\274\200u\034\273\340\362\376<8\224\344\274tu$=\320)\035=\030\340\320<\240W\222\273$\275\033\275\324>\t=\300\215\320\273\350\301\243<\260\362\025<@)[\274\224\264Z=p\355I\274p\271\277\274\350=|=\340\244\210;(\316\230\274\250\333\214<\014\257E\275x\314\321<x\363f\275(z\247<\204\276\016\275\020m\305\2748\005\353<\214\237w\275\374)G=\0341i=D\222s=\010`H\275\000\334\202\271\254@\014=\264\220\026\275\300.8;@S\322;\0301\372\274\024Bh=\004\365\017=\360\245\271\274\300\221j; i\306<\300\204h<\000\254\220;\250\020\363<0#;<\264\371I\275\260\033i<,\226`\275\210\034(=\220)\202<\310&F=\374Xs=4\2103\275\340\366\021= \301\234<\300\245\366;\000J\343\274\330\347\202<\224\260D= \272\251<$\271K\275\000<\237\272@\242\001\275\214\235Q\275\234\221\007\275\300\233O=$5-\275,\357&=\274+q=\370$\371\274\250?\302<p7\257\274\220p\211<\300\3327\273\014,Q=\360I\227<4q!=DE\\\275\030o\311<\204\177B\275\200$\313;\364\026E=\220\307^<\300\3629;\004\250|=($\262\274\030x\361<$\020M\275\000\267Y\274X\021R=\020k&<\250\321\315<\314\020\025\275|pi\275`YL<\004g\002=H@\211\274\360c\333<\240K\261<\230\273\254\274X\000\023=\310\347_\275\210Q\366<\000#\316\272\364Y8\275\370\252\177\275\234\226\027=@\000\325\273\300\340\300;\250\'\254\274\000-\356:P\014J=XK\325\274\330*p\275P\266`<\330\216\271\274\370\377\n= Jo=`\366\343;@\266\032\274(\337\002\275@o\252<\010\023\265\274\000\275w<\250\337$=\204rI\275\000\312N\275\000ba;\204\022B=\2400\014\275@h[;\024:O\275\320\360\210<\370c\244\2744\366\'=@\342\001=\000|\023=\320l\022<\340\021\373;\270\372\014=\260\022*<xQ6\275P}\'<H\223Q=\3003\013\273\300M\002\275\2601\033\275p\001(=\250i\'=D\026+\275\000\230r\273p\254#\275\350(\001\275\334@\037=\270\310\251\274T\252X=\360AB\275\240<\006=\340h%\274pdY<L\001K=\330\243\271<\000\325\333\274 ba\274\240}\356\273\354\360p=t\024R=\300\212;<\270\321\247\274@\373\346;\000\343G\273\300\353p=\214\022u\275\340\354N=\0346\006=H\357\332\274\330\177T=h\310\303<\340\247\306\274`\3445<0\262\032\275`\343\224;`y[\275\004T\037\275@\016\240< \'+<\200\302\303<(\330Y\275`\275j=\014@D\275\2304\373<\030\306\"\275\300(\036\275\354dg\275\240\014$<\300\363\370\273\0008\377<|7==\020\001y\275X\026\330<\270\377Y=\020\'6\275\210\377l\275\240\243R\274XOg\275H/\210\274\200^\177\273\260\344A\274\260\353\333<\000\000\0306\300\240C<|\374F\275\\\2414=<-\026=0\003r\2748\303\240\274 Zr=4d\016\275\234dO=t\257`\275\220\341b\274\264|H=\354f<=,1Z=\240\372\255<P\301\242\274\\\336\035\275\000ML<P\031\n\275`)r<\220\243a\275\200\361v\273\220]\364<\2008\372\273@\013/;\324.\021\275\260w.<\370\350u\275\020\235\010=0Vy\275@K?<\274\016Z\275\360&\024\275d\367K=\220\202\007=\344\307R=|\330\036\275p\200K\274\010\332\337<l\030R=\260:\272\274\200E\243\273\260\315\016<\300\3245\273p\264\204<t\201\024=\2709\351<\\qG\275\244\260!\275 zO<`$\223\273\314\201v=H\335Z\275H\215\036=\210\363\272<\020\320\261<\300\014\200\274@\301\263;\340\200\202;x\3351=\310\364\263\274\020N\024\275\010KT\275\204\024V\275\000\252H=\340\330\260;\334\342`=\020\326\362<T7]\275\300\327\031=L5-=\224lK\275\340\365\205\274\300\0352<\240?\267;\260\'g=\300\211/=P\371G\275 HO\274\000\203\237<\034\376==p\277L=\030\360\203<\340\177x\274\204;Y\275L\351|\275\270@$\275LO\001\275\000q%\274\200aw\274\240\232X\2750\330\253\274\200\357A;\220h\017<\350\230\277<\370V\225<\220\347\030=\024\302\r\275@9\357;HU\t=\000e\363<\020L\267\274$\214\003\275\204\301\'\275\260\206\215\274\220\rS<t\373j=HC\035=x\274\t=\240\344y\275\000&v<\000\337F\275\364C+=\320\003\215\274P\035\331<D\026n\2758x\224<\254\212\025\275(\2163=,PD=\024\000d=\350\315\031=4WB=\330\346\363\274\244!J\275@\241 \2730\216h=\210\031\220\274P\374\241\2740?\263<`H8\275\3705>\275xk*\275\360\201o\275\260P\313\274@\251\333;l\354\"=d-H=\330\342\335\274P\227\277\274\240T\025<,\271m=\000\244\2229ds@\275\000D\301<\220\252><h\034\257\274@\233Z\274H\027}=\340\310\031<pB\025\275\010\375\245\274\314\236\177=\314\362r\275\210\354\217<\320\367[\275\330\3450=L\214\t=\260\304K\274(\354\341\274\3209y\275\370*6\275\020=\246\274\310\247\314<\264\304-=\274\202&=x\306\215<\270\010\n\275\230rL=@k2\274\300\307x\275\000\200\253\271\200\306\222\273\224{E=\304\235[=0?P\2748\303~\2758\272\221<p\025\243<\370\030t= *\021=La\027\275 \026\243<\200W\340\273X\376\246<l\226H\275L\330`\275H\313c\275\200\243\350:0\322\\\274\340\033(\275\254h7=T\253+\275`A\335\2748\340\007=@, =\000\000\240\270$R\005\275\350\3046=\220\363\020=@\272\030\275 \024A<\240\275\275;\200\023\203\273\2603\020\274\000Gt\273\220\335\277<\234W$=\314\222z\275\204\366*\275x\2344=h\311\205\274\330#u\275\220}N<@\276\327\273X#;\275L&`=\020\220\006\274\300\255;\274\220=K\275\260\204j\275\320d`<@=\300\274\340\233*\275\270\0252\275x\224U=\300\225\004\273H\321\016\275@\272\220;\200I\326;\200\360\"\275\300\001%\275`\020R<\374\010k\275@\'O\274\310|\313\274\200x\r\275\000\215\203\274\340\221?\275\250\206\214<@\320\021;@@`;\360dh=\020\354w\274\370\350\003=@\337E\275PR0\275\314E~\275`q.=\274\2401= 3\221\274\204Xu\275`\323\007\274\200vb;p\"\021\275\0009L\275@\242\334< ]\365;\034\375D\2754\003n=\000\346\007:0\271c<\3144d\275Tet=\210\002\263\274(\352k=H\364&=\010RP\275| \033\275d!\032=\240b\335\274\360\\k\274\330\241\354\274@\217\220<\214h\021\275\314\252/=\000b\036\272\214 \002=\270|a\275\260\253\307\274lIR\275\000\232\342\273\360\302\007\274L\226K=P\360\377<l\330\034=\000\320j<\340\221D\275\010z!=@\272\204\274\250\254\354<\274~.\275\2705\217<0q\246<\350k\322<\000\274\336:h\243^=l\033\002\275\254\331=\275L\207?=\024%L=\000\300\0338\364\020\005=d\201*\275\300\254\311\273p D\274(\'j\275\340P\236\2740\257G\275\000\330\2778\224<5= \217\030\274\020\353\260<\020>\250<\020\274\372\274@H\226<\030\013\010\275(\357\214<\240\346\243<HP{=\000w\\<X\3545\275T\264}=,\375\026=8U\200<p\243\277<8\2251=@\276\355<$\307\007=\360\370\000=\360\225\303\274<\264G\275 \305\216;\210v\343\274\000\364\200\272 \256\361;0t:\274\020J\253<\240\271\365\274,\227A\275\350d\353\274\344\316@\275\344\237~=,\3124\275l\224b\275\370t\245<\244\347\"=\310\336\026=`\016\274\274\310\264f\275\360\025R\275\210\337\375\274\000\316\023\274x\262\022\275\320;u\275 \215\222<@\376\340\273\240\250\024\275\014\377;=\364:L\275$\341T=\000\363\251:\200\227\221\272P+7\275\360\346\'\274\234\033&=<\250^=\200\264(\274\210\343\316<p\257\033\275\020\300P<\240\002\313\274\210 \205\274\230S\036\275\030\360\240\274\240\274\t=\340\302]\274x<V\275`\261\256;\034\311g=\220\270+=\254/h\275\000J\004;<=}=@\271Y\273\020_\325\274\250\221d\275\374\337\031\275\030\237T=\244\362m=\224\024\035=h\232\341<\234\262r=\270Z\001=\000\314r\271\010\245\217\274\300#\273<\234\030\034\275DUe=\340\036Q<\300\343\350<\354Z\005\275\220\330\327\274x\355\226<0Z|<d\351?=\010|\362\2740Fw<\270\275:=\304x3=(\277\350<xK\260\27402E\275\340zX\275<&?=\200\0227=8S|\275D\261:=\220\255\033\274\230Ws\275x\313;\275\3300\213<\020\3305\274\230\310$\275\000\034\310\271\334\264i=\374\267h\275,\353Z\275\034)&\275H.\213<\3105d\275\034\004\025=8\311\303\274 \371F\275pL_\275t\370\"\275\344\006A\2750T\311<\200\221\024=(\371\002=\300]\322;H\236\024\275\200+0<\374\254\020\275\210b\304\274\364\003)=@{\335; \362\362\273\250\213Z=\250,\367<\010\\b\275\274\000v\275 b\374\274`\037\226\274`m\247\273 H\026=\214\t\006\275@\244U<@Z\363;p\321\300<\220>\313<l\213.\275\220&\275<(\222\352<@s\360\273(%\265\274\320|<\275\320\213<<\240\025\323;\260\304/\275hi\362<\014%i\275@\265U;\220\354G=0\004\250\274l\014\014= \272\300\274@j\355\274 ;\323\273\214e-=\000\201H\275\200\203w\274H\300 =\240\260\207\274X4\263<\360\020\r=\200\247\031=p6[\275\254\0107\275\300oi\275h\317>\275\220I/\275\240Q\362\274\254\237\021=\310\275\344<\340\177\324\274\374\347S\275|(\025=\020o\242<\000\373\376\274\260@S\274\200|K=\000T\241\271p;\013\274\240\022a\275@B&<\2300k\275\270^\337\274`DU\275 p\203;\270\243\360<\000v\263\273\334\365(\275x\277\246<\000\322\351\272\000\tD\272\320\315!<\030(C\275p\345\005\275\034\305\023=\000\024F\275\220\360\032\275@\247|=PMw\275\240?\314\273\000\"\031; &k<\350\033\324\2744\315\016=L\r]=\310YB=@\271\265<\310\303_=\370\342\265\274\240\252\212;X\375u=\360WD<\220\0163=\220\230\302\274\374\te=\354\232h=\014\344\014=$\037Z\275t\306\t\275\024G\025\275\320\177h=\010\200U=\230A\216\2740\231\235\274\3405\327<\000\321|\273@\242><\010\247\232<\240\367 =\030\366\212\274\034=I\275\260\022\036<0\250u\275l>\003\275\220>\223\274@\3265;\240\227\375<\210\031\235<\214B`=\3542F=\330\177\302<\340r\276;\240n\274<\024\001-\275\034^^\275xs\236<\270\352o\275\\\330\036\275\350\377\340\274@fi;\260\271\334<\340\327\265\273\330\251\252<\220;^=\350\2150\275x\233d=Tsn=h\213\'\275\240\023\353\273\270\204[\275\300\204K\275\360\032L\274\270g\360\274`\"\254\274x\2351\275\000xY\272\360\237\226<\020\024\016=8\272\352<`\030g\275\370st=P\317\n=\320\247/\274\204\026\'\275\26075\274\274\035$=\234\270G\2750=/\275\300\357\010\274<\260S=\\\211\020\275|S\027=\010\215,=\000\276\216\274\364Hs\275\200\242\211\274\200\005H;\000d\2049\010\375F\275\014\233n\275\244:A=\300:n\274(\0245\275`\341\022= \300,\275\210\3454\275\230\215\271\274\300\223\006\273\210V\206<\200&d;\330\276K\2758\026W\275`\310\265;H\272\314\274\030\310t\275\300\237\364\273\030-I\275h\344\212\274\020\001u=\010\2424=(e\274<\034<Y=\200Z\017=\364\261)\275\000\262R\274D\3166=\370q\237<\340\367{\275H\271\335<\3608\220\274@\027f\273\310\3711=`m>\274 F4< \324\237;\240n\322\274\220\016>=\000\357\265:\014\240\024\275 Q\260\274\250/\254<\360<Z\275\330FE\275liA=\250\364\303<L\001Z=\274\027\t\275H\252\266<P\334S\2740\221\021=\200\321\360;\374\217\n\275\000\226\020;X%.=\360\203Y\275\\\315}\275\340\273\273\273\210xJ=\200RW\275\300Q\244\273\000B\266<\300(\230<\2409F\275,mx=\200\247\031=\2207\335<\020U\251<\260:\314<@se\273 m\324;\010\035#=8B\236\274\000i\202;\000\243\374\273@\037Y;X\335\267<\354<6=to\n\275\310\023\264\274\370U\017\275\240\337\031\27483j\275\254:E=\320iU<\370\3370=\350H\202< \312\356;@\244\351\2730\2032<\2208e\275\340\r\241<\200\017\213\272\2707X=\230o\306<\200\261\357<0\257z\275 \037\\=\240\301\203\273`\001\001\275$\324\007=\000r[\274 \364W<\204x,=\360j\210\274\224\3150=\000\n\303\272x\221\375<\260\316`\274`Fe\274L\310?\275\374\370\035= g\361\2738)\325<\310\251n\275\004Tc\275\3004Z\274\3304\234\274P\276b\275\2448\000=\320\350\034=\010\033\352<x\211\343\274\220\016N=\000p\026:lK/=P4`<\000\276\226;\350vS\275\014\366q=\000\256$\275\334\215`=\210\362\236\274\310\2534\275\270\3727=\034yL=\300k\010\273$\341$=\3601U<0mf\274\200\300t= >\351\274XOG=\240\206\250;\210p)\275\300\036)<\240\234\375\273L\014m\275\214X\024=\034[[\275\030I\376\274\030\367\351<|\2634\275\200\365`\274\200Si=\000a\262;\324\004:=\000m\014\272@\313=\275P!b=\024\271.=\364\035R=T\315\035\275\330\223\021\275@\314-;\220Zu\275\240\253\303;\270\337t\275\024\244y=P\201\354<\020\330f\275\270\034\206\274`/\340\273\304\205>=\204ZG\275\340\020\201\274x\326K=\340\231\352<\234T9=\310\270?\275\250We= \035\365\274D\365f\275 \323\237\274\000p\364\273\0202`\274(\214\245\274\004\320\013=H\235F=@\352C\274\304`6=l_\000\275\340\244\367;\000\333C<\240\262P<<\222\001\275T\233^=\000\251\272;t\364\032=\200\336\303:\274\330x=\230\\Q\275x\376\356\274\340\303J<\314\351\002\275\354\352V=Xi\031=\370ad= \001\256\274\300\010!\274\0000\364\272,\006B=\000\207\005:\344\377Z\275`\004\313;\370\377\004=l)\026=@<d\273\340+O=\270d@= !N=p$\316<\214\tF=\274\036\031\275h\344\010=\200\001\210<\364\037t\275\210s\332\274hsc\275\210\3253=\000\240\275\271\250NY\275hDW=X\242\022=\000\334X\271(-\370\274\014X/\275\300\3065=0p\313\274\330\344n=Tq#\275\310\032\261<\020\313\321\274\344\0278=\270*\351<\244\236K=@\303V\273\324\340?= ~\311\273\200\335V<\000\317\262\274|]?= \244e\275(\273\244\274P\220r\274<,h\275\030%\276\274L\361s=\004d3=(\243\000\275\234\025\000=x(.\275$H!=\200\244\332\274 \330d\274\340a\000\274\230\263i=P\316\246\274\314\026.=0\221\300< #\000\275\200\262\031;\364\035t\275\320\343D<@\336D;\340V>\275\340\236o\275\220\355\t<x\303\024\275\360>_<\360\316\313<0Q\356<\350im\275\200\222K;\300\256p\274@\245i\275\220\025,<8\200\364<(}\365\274\340\006\007<\330\002X\275@\253\033\274\214C\007\275\3746<\275\030\354\010=\260s/\275@p7<\\\347;\275\210O\331<@\341\367;\274\340\021\275\000\r\325\272\200\322\354\272\340$\207;\310\3668= \343\233<P`\021=X\226\322<\314\375{=xV\222\274\354\237\002=\274\203o\275\350\024\353\274\300\326\320\274\250%\357<\230\346t\275x\271\353\274\260$\343\274\250\272.\275@\251\033=\2608f\2748\206\373< <\263\273<\201\n\275\3009\005\275@\333w\273\240\326J\274\000\355\211\274\210\317\354\274\340\332\332\273@\254\177<\320\005\265\2740\332\021<\034c\004=\360>\242\274\014\323M\275\330\364m=\0004+:\270(\237\274\200\244\357;\3704\t= \362\241\274\240|\337;\274\"a=\270\034\246<\020\263C<\000;\233:\310\333V=\200\217]\275\350\231:=pC\030\275H\275\032=<-n\275\300\225\243;\214\255B\275\344\353\030=|\256\033\275\330N\313<\260-#\274\264h\n=`\022\205\273l\213\006\275\030\216\221\274\000\267\210\273\000\372\373;\000\241\376;\270\211q=\264\r;\275\360e\177<P|4\274\364\220\003=`\221\240\2744\304$\275\\t:=\300\001\314<,\270<=\260j\373\274xa-=P~D\275l=\033=\300\270\235\274\344PG\275\340\006h<PN\037<\340[;\274\340I\377<8^\372\274\334\313)\275\334}?=@\np=X\177\216<\314\2330=@\205\266\273p\031\233<H\207r\275\\\030\\=\370kB=x\216K\275\000\251\340:\210\353\032\275|\222\002=\000v\310\271\000v\270\273\210\261\364<\220\365;\274 q\262;\200=W\275\200*\336;\014\356S\275<|\"\275x\312\312\274`\301\256\2734p>=\234\0018=\360\333\325<\340\263\254\273\000\006\322<p);<\250\340\344<\230E\220<t\252N\275t\357J=h\353\341<\320@\320<\200\035\217:0\257\007=x\035\314\274\214LK\275\010w>=\370t\220\274\310\017H\275\240i\273\274`*\236\273\364\232\035\275\350\207\203\274\210\303\246\274\220\034\027=\000\3017\273\200\256\035;`\207\231\273\340\002r<\200\210R\2740D\017<\230p\371\274\234\206(= ,\261;\320-\224<@I\r\275t$F\275\004\025|=\270\244\256<\300\265\270\274\000\030\243:\350|\252<\000\300D<h\236\305<\350\026r=\340\263\336<\254\237c=\230\330\244\274\240K\264;\200\220\204;\334\243\010=|\001J=\324\nG\275\034\r\024\275\224ca=xp<\275\230\302\316\274x\207\374\274\300\177v<\340Q\276\274\200\355\222:`\\p\275\274\205w\275H\014\303\274\264QL=\240\246\303\274\204%\026\275\000\250\343\272\000\261f=\010#%=\364\350\'=,\257\023\275\240\007}\274\300\262+\273XuX=\210\371N\275`Y\230<p\256R<\210\357\206<\034\313$=\020K\342<4j^\275\300\330\206;\200\"\265\273\310S\314<4u\007\275\000\001\000\272T\3625\275\210\017\013\275\220\006!=H\311\\\275\260\016\003\275\260\222k=\324P\003\275\300\211\035\2738\274\326<\370O\206\2748<!=\330\235O\275\370\213B\275\310\267\311<\350\223\343<\304\207n=\210\210\217\27407\270\274\020j\033\275Lw)=\350\022\215<8c>=D\246\006\275T\025\031=\000vX\2728:\264<@U{\275\320y\177<\000\240U9\344\224^=\314\031f\275\264\322:\275\014\270p= vD\275`\254B=\304\031J\275\374\3430\275\360\320Y\275\200\004\005=\3600n<\310\260\351\274\000\357a=\374\350\n=\000J\217\274\230,l=P\002\007=\234\252n\275\304*\017\2758t\207\274<QO\275\200\353\322\274\220\003}<\200\'8\275X\253\365<Pq0=\210f\320\274H\264b=\270,(=`\203u\274\234\215W\275\210Su\275\300\3240\274\200\221\275<\000\300\0077`Uv\275d~6\275d\313\032=X\246\354<\014\367[\275@\377!\273 \250\346\274\340\037\200<\334\244J\2750IW\275\234z:=\\\326\016=\220\203c\275D\2539\275\000\2430\275\374?*=\360\023\372<\260\345\231\274\310\221\230\274L\004\027\275X\360]\275\000\2416<\240\356\215\274\320\213p= \355 =\250y\024=P\030\221\274X\354\271\2748H\247\274\210\222\000=\260\227@=hh-=`u\271\273\200FP<\214{l=0\3235\275\260\345\276\274\240\244w=\210j\375<\204\314M=\000h\244\273`\335\227\273X\352\003=\300\027\001\274\260\352\032\274`!\"=\204\252\177\275pO\273\274\010\377\005\275\340\224\221;\340\331r=\320\035\363<\020\034\347\274\010;\302<$\253e=\030\301\330<\360\350\310\274x\301A=\210Y\316<\200Ci<\350g\034=\370\213\266\274L7w\275P\336\223\274\020\331\010\274@\3323=\300\245?;xq\362<\300\202\311\273\200d\004=\230\371\275\274\230\345\013=\210\014#\275\340\022+\274\200\2029;\340\373\325<\010\363\026=xP\303<\2405\351;\350[\245<\000\023Q\273\030c,\275\014\376p=\200\277\354<|x\177=TC\032\275\\\006R=\304m\'\275\000\333-\2720\021\220<\360\361\305<\364|&=@\022,<\200\177\246<\300\357Z<\264\225\020\275@\026\211\273\350\0305\275\314\rT=\270\267p\275\260\331\'=\200\236\357<\240\343}\275\200&\270:\330s\247\274ln4=x\316\374<\324N)=\0045=\275@\3703<`\r\321\273 =x\274\374d\024= W\240;\230\263o=4\307L\275\344\3314\275x\010\227<p \"=8`\365\274P\031\r<\000\002\332<\260\251\331\274\030\037\372\2740\rH<\300\020\200<\330<\272<\030Y\224\274L\2617=\220\306\034=@\201\031;\014\3113=@\305\221\273\010\366.\275`j2<\360\201D\274\320\262P\274\210O\306\274\210\225|=\020\373\326<\220\333\037\274\340j\227;\330\346x\275@\002\000\275\364\337\000\275\264\'j=h\261\220<T\245\022=\274\257b\275|\240[=\300\231\370\273h\3174\275\240\345\"\274\3348G\275\364\306^=l)\\= L\276\274\310\200r\275 \253\347\273\300\001\301\274Ln~\275\250\213~\275\000\276\2039h2&=x;N=\214\256H\275\000\002\2229\360\326i=\014\310\007=\250[\325\274\020\034,=\250A\037= 7\317\274p\321\243\274\340\307P\274\270\022E\275t\336\032=@\237\344\2740\270O<\\\2222\275\364\0300\275\000\320\3179P_V<@9\r\273\240u<=Lhs=\350U\262<hdr=\354\310y\275\350\346z\275\000\322\r\272\300\273c=00\030\275\370\261\307<\360\213*=\340\356+\275\240\272+=\340D!=\330\255\227\274\330-\005\275\240\221\245\273@\266\264\274H\325\222\274\014\363\017\275\200<\222\273P\003\025\275\000\tP\275\330tp=\000\013j;dOr=\300\010v\274\010\367\242<\230\330m\275\324\271[=\324\316\"=Hn\370\274`m\215\274\\=&\275\364\266&=\360~|<\214\261>=`x\362;\250\341.\275\224eh\275tJ \275\004\240K\275\000i.;@{\342\274\360\000\033<\200\301\341<\240`\000<\320\330\022=\270\343m=\340\226\227\273@Wk;`|\035<\340\0308\274h}\364< \200\223;p\326\251<\000\335\216\274\200\252l;\000(\2279(\373T=\014\375k=,_P\275\030\350\014=\210\377\n=0\354\030\275<+|=\244\374<\275` (\275L\3227\275x1S=\000K*<\340\200\r\274\340\020\014<\030\305\261\274\330\214\010\275\364\037u=P\220\346\274\200v\367<p\336\230\274\024\256V\275\000\0246\274<\233J=\310At=\220\2463\275\350\222\335<d\357q\275\240Y\013\274X\352q=\340/%<\334\303(=\230\036\272<\350\3643\275</3\275\310\252`\275\300\212\376\274\310\236\271<\030\t&\275\260\030\304<\\\3623=\204\267\036=\240\031\331\2738L\221<`\254&\274\230\345\225<\344FA=\350,\245<\270L#=(9\217\274`\231o=\234\332k=`\020\215<\350\235g\275\304\363a=\320\274\013\274\234Qe\275\020av\274\204\246?\275\360^\261\274\360\002\210\274\210\231\201\274T\025\020=\244HG=L\322\t\275\200\341\206\273\020Ma\275\270\355\205\274L\271\007\275\310\343\203\274@\311j<4N\022\275\354\357t\275\260`\023\274\000\227Y;\000M\010\274P\024?<\270\025\"=P\354K<\000\370\243\273\200GB\274\370C\177=\024\360i\275\240~\241\274\000\252\224\272P\355\252<<\220f=\374\354T=\220\343\223\274<\000&=d{\007\275\340\260!\275\304&J\275 \340\227\274\244L$\275L;R\275x\247\222\274`\2548=8\334\333\274\020\023\217\274\200U\247<\234b\034\275\030/\257\2748D\302\274 \000\354\274\364\334q\275H\231\020=\260\376-<P)B<\000a/\274P\376\274<\250\242\255<\020\016\010<<\313A=$\304T=\270\013M= \211w=h\261\210<xC\000=\340l*\275 \233\260<\004\017W=`#%=\200\033\250\272\240\264b\274@\214\321;\230\207\260<\370M\246\274 \345\361;L\323T=\340\007D\275`^\255\274\220\343x=\350c\327\274\000\227\356<\320_|\274\324\347\003=\020\2046<\210\354\256\274\350\n=\275\220F\001<\014\271:=\220\2312<x\321\202<@jI=\224b8=\370E\252<4{_\275x\207]\275pe)\274\210\276k=\020\256h<H\226\243\274\330\203\031=\300\t&\273\000XA\274\230/F\275\0007\276:\310\266\320<\240H;\274\310d\234\274Pk\215\274 \033%=\020)\246\274l\2204\275\200\314a=,\273[=\0247T=8\350\000\275\360U+\275\234!P\275 \001\244< )\224\273,\367r\275\2409\361\273\240\t\365\274\220.y\274\000n\222\272Dcx\275H\350\021=h\027\345\274pJ\312<t\366A\275 \3211\2758e\260\274\\Gw\275\000\300\203\274<\016I=\330\324\t=\234V\001\275\264^#=\360\240.=$r\000\2758\272\"=\350\222\267\274\304e2\275`6|<H\256\250<\200g\252;\340\373\003\274`\3647<\210F\004\275\034Y\002=\240!a=h\031\274\2740\303D\2740Q\006<\000z\001\274,\010|=\000<\317\272\200fq\274\240\014\256\274\230\235\235\274\200\374\355<`\234\340\274\024\003R\275\224\014%\275TqE\2750\262\033\275\300W\000\274\324\267]=\374FY=\320Vn<\270\272\263\274 \341\347\274\300\333\\=\250%\022\275\334wX=pS\"\275@[`=\340\374X\275\334\370\\=Xs\233<\260\025\255\274\340\376f\275L.5=\340\335\274;\340\327C<\214f\023=\034\376+\275X\374\021=\360\3719<\210\254\360\274X\005\300<Xn0\275\2405V<\360\341\026\274\200m\033<\230\225\033= )\361\274\374\351\030=\300-g\275\300\361\037;\250\331[\275 \215\010=\304\007Y\275\024W&\275\344f\005\275\220\375\372\274\230d\303<`\030\243;\300\212\366<\220\205 <\250\031X=\02086= \030s=\330)\311<\00056:\240-;=\360O\r<\000\224\177:\210i*=H\356\224\274h\343_\275@\330(<\360p\017=0?\001\274PB\221\274h\237s=@\004\335<8\304t\275 Fb\274D\3739\275 \353\006\274\350^&=\200vH;\304\020~=\000\000\3457xdK=\024\233M\275\240\332\024<\320\006\272\274\204t\034\275\220g\216<@\377y=(\027E=\360\270\341<\254V1\275\370\256\315< he\275\234\'Z=@\207\317<\200:x=p\331e=DB<=(\263v=\300\3260=\360 \007\275\250(\334\274(\314\246\274\270\324\032\275\214UH=DC!\275x\004\237<8ST=x\213\250<\330\020\215<X\326|=\0007\262\274\304?B=H\361\001\275\320\305)<t\220o=\364\001|\275\200I(;\264p\n\275\340w\210\273t@7=\220ul\274\304\267k=8\272B\275\270\241Q=\000\201\t\275@\223\352\274\000\371{\273\360\373Q<8\211G=\230\203+=\230\303\016=\310\327#=\320\t\035<\370\215\322<\020I\035\274\270-u=\000*+\275\000\024g9\224ym=\260\276\255\274\340\204<\275\374\001[=\320\216\031<xxG=\204\373o\275Lpm=\024\205K\275T\257)\275\\\353D=\230Y\311<\340\177\251\274,4a=\360\214D=\270\323c\275\200\254|\273\200\'\337:Hf\264<\014\227/\275\234ZA\275\334]J= \306a\275t\014M= \246\316<P\3300=P\034\014\2740A\374\274\200\360`;\\\2727=LX==h5\"\275\250\222\272\274\000l!\271\220sc\274h\000\246\274\340\216;\275\364 3=\334\347F=8\002\267<@\254\r;8\245\235<\240\374a\274\340\343.<\200(\365\274\2000t\275h1;=\320\371=\274p\256\367\274$\254:\275\36083\275 \340R=\340\315~\274\240r\217<xb\316\274\250\020\262\274\030\021\242<T\326z\275$\311F\275\234\177}=\240\252K\275\0108F=\220ip\274`P\343<\200\225w;\330\277\227\274\230\252\241\274\334\226\001\275`Dx=\234\306\003\275\200oH<\000\202>=0\206,=\240F\266\273p\266g=T?n\275@\313\232\273\310\020\344<\344\n\023\275\250\361\206\274\240!#\275\334\030A=8\375\252\274\260\307\032<\270[\217<0\357Q= 0\320<\240\020|= \213\222<HE!\275(?\254\274\034\205$=\264\305;\275\370\314\326<\030\2033\275\000\013\234\272@\314T<p\222q\275@\340O\273\234#\"\275\340\302\000\274\270\004h\275\230\021\241\2748\355\364\274\3606{<\354\356Q=`\030\262\273\314\010\034\2750\204/=`e\021\275\010\321J= ;\257\273\240\026\331;\004%u=\320gB<H\252%\275\300L\303\273\200\232\354\273\300\221\005\273,\3448\275\210\177\320<\030\321\222\274l\233<\275\370\250%\275\000\277x\274H\345D=\250E\002=\204\\[\275\210\317\003\275\000k\177<\370x\200\274\310\277\272\274\360\325\003\274\320u7< \353V\275\270!q=p\317z\275\220\212\r<HYm\275\250r\306\274\324V\001\275\034\035Z\275\260\231r<@\210g;@\244l=\240\0049=8\\W=\340\010\236\274\000\367\036\273d_\"\275\340\352\024=\260+\014<\270>/\275 \002\336\2740\351\014<\340&\242<\\\311f\275\200\2047\275\300T\304<\340i\370<\370\260/\275\3208\331\274\260\316\376\2748\261A=@\255q\275\250l\231<H\216\034\275\020`B\274 {\356\274L\333\n\275\240:\347<@\223v=\200\032P=\240\251\336<\3203u\274\360\272A\275\354\251g\275`\307\207;0\333=\274\200\272\260<\264\341h=\000\216\351\273 (-\2750\202:=\340b\246<\300\336\037\273\214\252K=\2000\373\274\220\325\334<\264JZ\275x\027~\275\314~Z\275\360\263^\2750\327\204<\204q\022\2750\362N=\274\262W=\000\323\230\272\2549C=\270\014\263<x&O\275\200\352\321\272\224\010\026\275\254\215_=\020h\224<\370\342O\275`/ =\330\203G\275\350\371R= \340\374;\264\366M\275\360\020T<|4a\275H\320\347<\240\013;=4\315b\275\334r\026=\310O\360\274\230\265\300\274 \000^\275p\202P<\220\217(\274\260W$<\010K\246\274T\2265\275\250\350\347<\354\200+=(;\356\274\300Y6\274\260\220V\275\300\353u\274\260\302o<Pj\233\274\200\343\211;\200g\200\273\300\2257<\300\300\304< yb\274t\016/=\200\370P=\020\215p\275\274\247b=\000\304\007:L\216R=\270K7\275|F\003=\240\272\316\273\260\226\307\274\364\3051=p\2546\275\220d\310<\200/\333;\010\201D=\250Vo=hvx=\310\370\014=`\306\214<\340\375\007\274@A\273;\200S\335\273\300\034+\2758\020\031=\264\352\014\275\0008\026; \363\034=\340){=\200\\U<X\266\305\274\260\373\355\274\230\345\036=\200\001i\273p\267C=\200\220%\274\300\\\253<\000\272\264\273\200\341\007<\014\326\024\275\360d\320<\334\205\'\275l\t$=D\313\025\275\020\265\017<\204\241\023\275\350\377\016\275\020\224\027\275\3407~\275x\376K=\020\3509\274\350P\275\274(p\326\274H\030Q\275dT\024\275\200\317\326\273\000\376#=,\307\n=\000\324=9\220\301\353<\340\354@=\360\354\230\274\240\200\177<|\237I=\200\005\005;\000d@=pS\037<\2009\254\274`\301\221<\360^\237\274p\024C\275\234\362$=\374\307_=\204n\000=\264SQ=H\016\345<p|\237<\020kv\274\304\021;\275\034\261\024\275\270&\252\274\370_\350<\030\363#=\320\210=\274`\3361\274\270\263Z\275\240^\334;\330\376\234<\010PX=\000\375\230:\000QG;`:&\274p\347Q=\364\256>=\360e\270<\014\311C=8\037\302\274$\005H=(`\370\274`:\026\274\030E\317\274 \370z\274\260A\265<\320\2708<\214l<\275$L\"=\264}6\275d\2732=<o\013= \216l\275dvm=\3005\002\273\340\314{=\350\322\321<\330\261\256<P%q=\\\3339\275h\264c=,C3\275`\341\344<\334\304\004\275@.|=\220\372\260<\024D\034=\344\3304\275\014%\'=\200\352)\275\310Kv=\374yQ\275d\253%=\000\266Q\273\200\t\224\274\250\2513=\220\014\360<\310\"\340<\030\210\024=\000\320\016\270L\213I\275@\034\202\274\344\212F\275\010j\315<\260\255S\275\200\217/<\274c]\275\310\362\036\275\200o0\274\224%9\275\344M~\275\334:E=\360\033\312<d\035>\275\260t\255<@D\355\273\360\354\032=\310\037\213\274\330Ep=\364\251\024\275\264V\"=Lf\033\275\220\241\310<P\273)\274h8\344<\000\272{<\200\365m\274 P\365<\200\304\t<P\014\202<\300\334\201;\210\r\224<\300\225\017\275X\247\006=\340\242\366;\340wG\275\270\300\351< 4\273<\340\r\035\275\224-9\275$S\177=\250P\275<\300\"\'\275\\\022\002=@\250\356<\334\352\t\275\254\364B\2750A\363\274@\021\370\274(\002\372<@\025\014\274\000\016a;`\220\202\274\200\003\306\274\260\367i=\364I\035\275\200\334\010<\310\201\022=\214&+=\274*Q=\2600\255\274\210\305+\275\000M1\272 \370)<\254\272\033=p\372\000=8x\207<d\214c\275\200f\371\274`\244\255\273\324\250~=\240\363=\275D!~=\300\367\317;4\243\007\275`\311!\275\340\0075\275\000\312\2469\300\306\315\273\3204\361<LLQ=x\235\351<\2000\350:0\0008\274T\177\037\275p(f=\320=\021\275\274*;=\000l\336;\370\275$\275\264\\V=\2448=\275\220\344\214<\374\243\020=\020\230\253<@1\'=\230\367h=\220-?<\304N}=8QN\275\370\3504\275 \353\222;\020hZ\275\360\202&\275\310\222\344<\310\370\020=\260\221\362\274 \210D\275D\000<=\200\306\032=8\324\272<\240\3678<\000\262\2779x\226\372<@n\276\273\200C\231<\240\010\004\2754\006\n=p%\234<\330\365\201<\314\363~=p\227s\275\000\256\231;\240\215;<l1{=H Y=LM^\275\0001\331\274\020\321$=\220\027p\275@\243\254\273\260kc\275\330!\257\274 a\321\2730\007\226\274\310\345\025=\200)h\274\300\266\337\274\300 \230<\004\312R\275P\302O\275P[\333<0$\033\275\\\300?=\260\r\021<x|\003=\200\352\343:@IH=\300\312\304;\304\2504=\370\301q=hc\"=\030\200F=\020\273$\275\000\244+\271H\373\270\274\354\3263\275P\307\304<h\253\336\274\330p\216<\360\0308\275\220\255\026<\010\360\335\274\240}r=0JY\275\000\026\030\273\224Mi=8(\025\275\000VJ;\240\024E\275\260!\203\274\260HF\275\344\344\022\275\250HF=\010\210\r=\344\327\001=\330*\272\274\030\267\000\275L/\020=\340\314Y\275H\312j=@\207a\274`\322\220;\364\247u=l\254i\275PD\223<,\205}=\200\361\014\275``\026\274h\244\330\274l\230;=\334@\024\275\000\3341\273\340]\266\274\220\360\271<\370\252\272\274\010K\032=\2107\335\274@\177?\273\000|@\275\010\357\023=\204\036@\275\260\321\031<\360\201\262<\364\025E\275\364\370^=@\262Z\273\200z\241<P\027\364\274\254hc=@2F\275\260\246\233<\210\346\265\274\300\243@;0~\236\274\260\363\340\274@\001o=\264T]=\320:,\274\260nO\274\370\013F=0\235\007\274L\001Y\275\250\272#\275\334\271\014\275 \377K\274t\004\177=\314\303\036=\360\341\310\274\324\342\"=\340E:<\010\234\337<@\376\344;\000\351K\274\270\000\221<X\210M\275\224>\014\275\210\231\336<PAJ\274P\220w\274\010\243&\275H\001p=x\'\025=\2007\337\272\234\034n\275\370\232\252<p\260\007\275\324\225\003\275\354<\036\275\240\206E\274\210r9\275\234\202\023\275\244\345\007\275\300M ;\300v\367<|\374w=H\331+\275\350\345\261\274\354\217?\275\260vd\274x\215\375<\000Z\3559\000\234\247\273\030@U=\200\007(=\274z7\275\320 D\275\300\230\310\274T\313_=@s/\273\220Z\006=\030L\322<\254,\010\275\374\316 \275\344s\023=\260\342\367<\304\276V\275\300\362\257;@Rm\273\200\351\367< \r9\274\200Z_\275\004\0025\275\000\234\017:\270\257\212<X\330c=\270\305\367\274\330\3744=\344\024Y=\010\377\337< 3?\275\360\031\376\2740\246E=\320\255$=\010\"d\2750\2266=\270\325e=\360-I=\010\360s=\010\025D\275\\<\021=\000\322\002<\224\000.\275\3400k=\320xm\274\234u6=\214tS\2750qV\275(\263T\275\200\315\246<h\306\206\274,M0=l.\030=\000\321$<\314\341;\275\360\340\"=\020\325\322\274\260!\224<\274#Y\275HE\275< \236\363\274\330\023\332<@U\\;d\203b\275\340\225\014\275\350\345\243\274\240\272\327\273\300\306 <hK\016\275\230!9=\334JQ=\224\211S=(Jm=\220Uy=\030>U\275\270\235\371\274x\274\210< \273\031=\020Pe\274\340\323\312;\240Q\234\273\3349\037\275\200\222e\275P_\332<\320\240\024\274d\316J\275\010\000\343\274\274tE=8\004%=`d\000\2754\242;=\340|\005\274\210\354m=(\007\360\274\000\201t\273\200\213\376\272\310\206\037=\300\342\207;\320E\300<X\357\367<\350\235\252<\010\220\226\274H$\243\274\364\277\032\275(\204\344\274\234\265\"=\220[_<H\257\311\274\230\366\232\274\260\253\037\275X\245)\275\250\003F=\240\026\007\275\310ga=\004\213\023\275\240\010\301\274\314}\\=\324\\n=\200\210Q=\020(\036\275\340Pc<,\242/\275\000\000{\266\200\251!\275\300\241\177\273X&\005\275\370\254\244<\204tT=\260b[\275\270\320\351<\000\366\2369\260sH\275\370\327\311<\2302q\275\334F8\275\\\262\033\275\330#K=\240lf\274\034lL\275L\335K\275@\255\340<t\014\022\275\200D\014\274$\245`\275@FU=\274:*\275D\252\033\275\220\220c<8\262U\275\364Z*=\240\276\340;\320\242L=\250\343~\275\220\366#\274\240\227\370\274PK\324\274h\022\304\274\310(\346<\374\254}\275\210!^\275\260kU<\310Z\020\275H\276\251\274\010\200\222<X\214\353\274P\333x\274(\260\212\2748 \"=x\324\231\274\214\366\002\275\000v\225\273\020\014\t\274H)}\275\000-\300;\004\222==\334\200\001=\034;\'\275\330\370\017\275\000\345\030;\030\177#\275\200f\024\274\250\335s\275H\232k=\320\030F=0\177{<P\026*\274T\207b=\214q\026\275\300\t\246<\034\264A\275\2107\023=\300\317\250<\200B\010\275\200\022<=\310\2629\275`\206\262;\000$|\273<Hk=X`\t\275@\035\224<\334\243\014\275`\211(\274\364\350\032\275\000\220+<\310\277\231<\2006w<\2145W=\370\334\364\274x\363-=\260\350B\275\360\325Q\275D\3138=\000\226P\275 C\227;X\345\302\274X\356a\275\000\t\272\272P\254@\274\354\324[=\240\206\020\275\360\206\'\274\314\220L\2750\031%\274\370\377\312<\300gA;\340\212\r<\240\332\337;8\333-\275t\260\032=\030\264>\275\364\225w\275\240\373\005<@\232b\275LuM=\220\246\022\275\264\250\031\275\300r\344<\014\223\037\275\3407\273<\020m\272<\200\004\244<4Y?=|\2667=\3008\356\274P\220\232<@\225\027\274PGl\275t2~=\370f~=0\240\370<\010\221\226\274\260\205&<\000\254c\274\270\267k\2750\275 <\340ZI\275\330\303y=\350\203\027\275\224\345$\2758wD\275\230\352\271\274 \356G\274\260\224s<0i\337<\014QT=\\\226\"=\304%_=\204\2364=\210c\222\274\2601b<\\\236\007\275\214<1=\250ep= \001\333\273P,